[PAD]
[UNK]
[CLS]
[SEP]
[MASK]
[BOS]
[EOS]
[unused0]
[unused1]
[unused2]
[unused3]
[unused4]
[unused5]
[unused6]
[unused7]
[unused8]
[unused9]
[unused10]
[unused11]
[unused12]
[unused13]
[unused14]
[unused15]
[unused16]
[unused17]
[unused18]
[unused19]
[unused20]
[unused21]
[unused22]
[unused23]
[unused24]
[unused25]
[unused26]
[unused27]
[unused28]
[unused29]
[unused30]
[unused31]
[unused32]
[unused33]
[unused34]
[unused35]
[unused36]
[unused37]
[unused38]
[unused39]
[unused40]
[unused41]
[unused42]
[unused43]
[unused44]
[unused45]
[unused46]
[unused47]
[unused48]
[unused49]
[unused50]
[unused51]
[unused52]
[unused53]
[unused54]
[unused55]
[unused56]
[unused57]
[unused58]
[unused59]
[unused60]
[unused61]
[unused62]
[unused63]
[unused64]
[unused65]
[unused66]
[unused67]
[unused68]
[unused69]
[unused70]
[unused71]
[unused72]
[unused73]
[unused74]
[unused75]
[unused76]
[unused77]
[unused78]
[unused79]
[unused80]
[unused81]
[unused82]
[unused83]
[unused84]
[unused85]
[unused86]
[unused87]
[unused88]
[unused89]
[unused90]
[unused91]
[unused92]
[unused93]
[unused94]
[unused95]
[unused96]
[unused97]
[unused98]
[unused99]
[unused100]
[unused101]
[unused102]
[unused103]
[unused104]
[unused105]
[unused106]
[unused107]
[unused108]
[unused109]
[unused110]
[unused111]
[unused112]
[unused113]
[unused114]
[unused115]
[unused116]
[unused117]
[unused118]
[unused119]
[unused120]
[unused121]
[unused122]
[unused123]
[unused124]
[unused125]
[unused126]
[unused127]
[unused128]
[unused129]
[unused130]
[unused131]
[unused132]
[unused133]
[unused134]
[unused135]
[unused136]
[unused137]
[unused138]
[unused139]
[unused140]
[unused141]
[unused142]
[unused143]
[unused144]
[unused145]
[unused146]
[unused147]
[unused148]
[unused149]
[unused150]
[unused151]
[unused152]
[unused153]
[unused154]
[unused155]
[unused156]
[unused157]
[unused158]
[unused159]
[unused160]
[unused161]
[unused162]
[unused163]
[unused164]
[unused165]
[unused166]
[unused167]
[unused168]
[unused169]
[unused170]
[unused171]
[unused172]
[unused173]
[unused174]
[unused175]
[unused176]
[unused177]
[unused178]
[unused179]
[unused180]
[unused181]
[unused182]
[unused183]
[unused184]
[unused185]
[unused186]
[unused187]
[unused188]
[unused189]
[unused190]
[unused191]
[unused192]
[unused193]
[unused194]
[unused195]
[unused196]
[unused197]
[unused198]
[unused199]
+
-
.
0
1
2
3
4
5
6
7
8
9
=
>
[
\
]
_
a
b
c
d
e
f
g
h
i
j
k
l
m
n
o
p
q
r
s
t
u
v
w
x
y
z
##1
##2
##e
##p
##t
##a
##l
##o
##n
##g
##u
##r
##i
##y
##d
##m
##c
##s
##v
##h
##b
##x
##f
##3
##4
##k
##z
##0
##w
##5
##8
##7
##9
##j
##6
##q
##he
the
##on
##al
##re
##ar
##te
##ti
##as
##ng
##le
is
##ed
##or
##en
in
##er
##si
##in
##ac
##th
of
##nd
no
##ig
##es
##il
##tion
##ou
##um
##om
##igh
##ight
##ral
##di
##ate
and
##ic
##ul
right
##ef
##em
are
##ly
##ff
##is
##ha
there
##ne
##sion
lef
left
##mal
##neum
pneum
##ffu
##ent
##nc
con
##id
effu
effusion
ple
##ural
pleural
##ub
wi
lu
lung
##ta
with
##ro
lo
##hang
to
car
##oth
##ation
##ter
##ora
##orax
##pp
pneumoth
##st
##ol
pneumothorax
##ct
##ing
cardi
tub
##ve
##ary
be
##ema
tube
pul
##mon
##ear
##monary
pulmonary
##ra
re
##ble
##hanged
##tin
unc
##pac
unchanged
##lect
##it
##edi
##tr
opac
##nt
se
ate
low
##edias
##ediastin
or
##ph
##ous
##asis
atelect
pre
as
atelectasis
po
mo
##ormal
ex
app
##ia
##hou
com
##iz
ed
edema
cardiom
##ediastinal
##og
##ular
at
comp
sta
##ilar
##der
##are
normal
bas
##ce
ca
has
mil
##ip
##the
mild
st
siz
size
##ver
##et
su
opaci
inter
##arg
sil
##houet
silhouet
##cre
silhouette
##ew
de
##creas
tip
cons
##ateral
smal
seen
che
chest
hear
heart
small
##ati
ra
lower
moder
moderate
##ity
##ine
li
##olum
##sition
volum
pro
##ated
pr
radi
cardiac
effusions
##ogra
th
position
##ior
##se
##asc
##res
##ograph
##olid
radiograph
consolid
##ilateral
bilateral
stable
##our
consolidation
##ud
##ties
chang
##tial
##vi
ab
on
##ence
over
im
##oc
pneumon
vasc
ev
##ow
appear
##ges
pneumonia
##ared
end
lungs
cle
##vious
al
##pper
increas
upper
lob
##ting
previous
##ib
clear
##ld
en
##ement
##fic
compared
##aly
##ted
##ec
##tent
per
volumes
##ut
opacities
##eg
lobe
##egaly
cardiomegaly
##ay
mediastinal
prior
line
sub
vascular
##val
evid
##sis
cont
##ours
##ved
been
##theter
catheter
##ocal
ju
##lac
cardiomediastinal
pres
##ache
evidence
##min
##op
##ort
##ini
fr
##ke
##ach
##ical
##ir
opacity
##cu
interval
imp
mid
but
##larg
enlarg
change
stud
study
like
an
ap
##ad
contours
focal
impro
new
likely
plac
##cl
##ain
for
sid
##anc
cm
le
this
##ther
##vc
##ll
svc
base
stom
stomach
##fication
##ould
##im
##ina
larg
##sistent
##atient
patient
increased
##orta
##ss
vi
##tric
ha
rema
remain
##ue
ag
##ates
ter
##hy
##gestion
##gm
again
tha
termin
dis
sl
inf
slight
congestion
##tu
other
##tro
##emi
not
##car
##astric
##ark
##ragm
##phragm
##tic
##lev
##acheal
view
opacification
pic
##ance
##ess
di
mini
minimal
within
##ant
##vel
##tracheal
##an
appearance
##vic
endo
##lu
##ge
large
endotracheal
wh
have
present
##low
##ibas
##ard
bibas
noted
sided
ven
##ove
enlarged
above
##able
hilar
retro
##cardi
##pr
carina
##cardiac
appro
retrocardiac
cl
could
##per
##ied
hemi
##ding
##ich
which
we
improved
##ntial
##tri
##ogastric
ad
lim
rep
may
int
##no
nas
picc
##li
ends
##str
nasogastric
from
bibasilar
slightly
ob
##ediastinum
proj
##all
cent
central
devic
consistent
##emon
##sti
##nal
##gular
et
##emonstr
ref
##arenc
##omy
well
##arenchy
##ost
parenchy
decreas
##bly
##ign
jugular
##ual
ear
##us
##ron
porta
##tal
demonstr
venous
sug
bases
portable
exa
terminates
##so
##tif
mediastinum
more
wor
un
##ening
due
##nction
by
also
##gh
##ch
##its
##clud
air
##at
it
limits
sugges
rem
tr
##ect
som
junction
##rem
sin
##orac
##not
##arkable
changes
earli
earlier
acu
##ise
acute
supp
exte
##sta
abn
abnormal
remains
intersti
stand
devices
interstitial
placement
support
than
sign
##den
##wise
otherwise
remo
standard
parenchymal
substa
##dia
substantial
pos
par
##diaphragm
unrem
unremarkable
super
def
##omin
asp
##ur
place
since
exclud
hemidiaphragm
##out
##vere
severe
##ci
internal
repres
mon
volume
monit
##sive
##oring
reg
##iration
reflect
##ion
##ere
monitoring
ass
##lec
##cent
##sid
level
wors
diff
##ative
ac
some
ima
relev
relevant
region
dia
prob
flu
##ture
infec
res
possi
post
fluid
appears
ng
##ific
contin
without
iden
compar
basilar
identif
ch
lead
sh
promin
aspiration
identified
##ison
comparison
atri
clin
##av
clinical
most
represent
decreased
##ately
pac
##ure
##sist
areas
apical
can
elev
cal
that
persist
dra
continu
now
##ined
##me
##owe
improv
trache
cav
ster
##ronch
##opha
exp
enlargement
str
##ian
##ably
##ross
##la
sing
below
single
was
##clav
##clavian
persistent
subclavian
overall
##ating
basal
signific
defini
aorta
mildly
appre
##ern
##tially
calci
##ough
##pri
appropri
significant
lateral
##uct
##line
##ures
##com
##ass
wid
struct
port
##velop
develop
##tant
##pright
thorac
##hilar
upright
ar
##xim
atrium
lin
increase
approxim
removed
both
diaphragm
approximately
##lying
project
gross
##ized
if
constant
es
structures
##owever
however
sim
##os
bronch
rel
##nded
mul
pat
similar
excluded
frac
loss
sti
##ven
projec
extent
probably
eng
##org
would
engorg
appropriate
os
col
mark
demonstrated
##ostomy
shou
day
##ment
grossly
##oa
still
side
##ula
distal
##though
although
recent
top
osse
##act
improvement
vis
sur
osseous
##tle
projects
##order
##trial
border
rib
he
##oatrial
cannot
visual
##nic
persists
cavoatrial
obs
##tained
patc
##tive
patchy
##ortic
set
fin
ij
enter
tracheostomy
setting
finding
abnormality
##one
extend
aortic
definite
##oph
peri
diffu
diffuse
suggest
##cern
##ong
loc
obtained
##entr
into
concern
##renic
##cia
apprecia
worsening
terminating
##pace
##ophrenic
exam
medi
perihilar
ve
##ult
##entric
##eed
visualized
##ulature
vein
vasculature
adv
##ym
##ater
cost
enteric
tubes
esopha
ct
##ree
##qu
##tail
##rent
##sure
should
##ran
obscu
costophrenic
wires
thoracic
##ast
##own
##isting
infection
elevation
sternot
sternotomy
##ys
findings
fol
##ities
##ened
overt
proc
out
demonstrates
exten
##ft
cur
##tatic
den
any
ventric
sever
##mination
larger
##dom
examination
adj
extensive
pig
appreciable
##acent
pigtail
##que
assess
##red
diffic
difficult
adjacent
##lo
cor
prominent
continued
leads
##comp
hy
##led
lit
und
little
gre
superior
##lowing
do
em
##ortu
under
abnormalities
projecting
##ty
##inage
drainage
tortu
kn
##trib
##lap
greater
##tribu
##oci
chron
comb
resol
thou
though
concerning
date
##space
known
ang
image
collap
atelec
atelectatic
airspace
wall
existing
##imp
its
superimp
##tures
##osed
##pine
##ally
cour
##sp
angle
ver
indi
associ
superimposed
##sity
associated
ess
infil
lay
essen
advanc
layer
differe
essentially
##ex
bet
chronic
layering
##ontal
intact
##tus
minimally
feed
engorgement
feeding
consolidations
less
##ker
gi
frontal
pacema
pacemaker
current
aer
##hn
tec
techn
##load
overload
infiltr
calcification
##ond
increasing
extends
borderline
##ortion
pressure
nod
combin
emph
##ysema
given
emphysema
resid
linear
##gres
##tation
##geal
fractures
previously
##alu
evalu
status
progres
area
combination
process
decrease
##xi
##ximal
##ple
proximal
blu
advanced
##ho
##asses
portion
##oraces
residual
##nting
positioning
better
fi
collapse
##cen
pneumothoraces
surg
possible
##tious
infectious
##erative
prominence
techni
##ymme
technique
co
subse
##domen
relative
ext
des
abdomen
##ath
##ls
silhouettes
worsened
red
##bil
contour
multi
so
##neous
##lation
##taneous
passes
qu
##bho
moderately
##bhoff
##tential
potential
severity
hemith
gas
##ack
##ered
##row
##cutaneous
overlying
tran
##ected
##ubated
##od
consid
considered
blunting
hemithorax
##ring
##ak
pacer
arter
deg
underlying
##ward
##orm
marking
##fied
##anded
corre
clip
subcutaneous
changed
accomp
##tribution
reflec
markings
accompan
asymme
whe
conf
compres
diste
##zy
course
##ory
bilaterally
imag
##bility
esophag
##ount
median
##lated
##vasc
##sible
removal
##ore
aeration
exclude
##vascular
clips
differenc
##lete
multiple
##pec
fil
ves
vesse
ro
back
crow
##dition
##end
compressive
drain
cath
possibility
potentially
trans
##arent
vessels
##eas
hyper
relatively
sw
##rog
expanded
crowding
##tifocal
multifocal
hil
##clu
apex
suggesting
tortuous
##inal
dete
apparent
swan
semi
##anz
ganz
widening
infiltrate
calcified
lines
ventricle
am
accompanied
##iss
show
bon
##ovascular
##sing
partially
elevated
free
##ial
##eld
signs
field
substantially
addition
amount
dob
supine
allowing
dobbhoff
bronchovascular
inclu
sc
##ene
##inf
##centu
accentu
##cted
##ticular
least
part
radiographs
resolved
reflecting
continues
along
development
might
sa
marked
expected
follow
differences
##ade
midline
##hat
very
shi
##dle
including
presence
limi
##day
visible
developing
made
##io
middle
suggests
complete
##cep
scar
zone
##lic
##read
##quent
sternal
##uc
bony
same
fracture
subsequent
film
tiss
presum
##her
device
##ations
imaged
complic
obscured
calcifications
esophagus
hem
surgical
excep
##operative
##nct
placements
mass
artery
detected
##ick
##rou
##ma
soft
##form
##pread
pulled
hazy
scarring
##rant
diseas
disease
density
##esopha
##ardi
sec
thick
##laced
parenchyma
related
probable
##tory
##espread
all
somew
widespread
postoperative
somewhat
perform
##adrant
quadrant
##onent
component
##ulated
bibasal
suggestive
performed
recom
recomm
these
chf
recommend
particular
##reak
shift
streak
##stinct
indistinct
indic
##ite
thickening
compati
compatible
##ule
##ving
##osition
second
cours
courses
##terior
near
engorged
shows
nec
##sed
intra
##phal
redis
conflu
##icardi
disp
progression
bef
before
nodule
non
##ness
degree
##esophageal
evident
arch
cla
carinal
venti
##fac
insp
location
opacifications
lobes
##cending
dual
dense
redistribution
main
hyperinf
thorax
esophageal
complications
clavic
nota
fu
ventricular
possibly
acc
surfac
loculated
note
stent
newly
##ither
##olar
evaluation
##cur
following
except
ful
##ose
##oral
represents
dil
long
##ody
trachea
tin
tiny
val
##veolar
extubated
dr
asymmetric
surfaces
alveolar
worse
##vid
distended
##up
provid
##cei
##ten
##ental
today
##eneous
##ectoral
neck
reflects
improving
either
developed
##fter
pectoral
##gg
##ful
provided
body
##umer
##side
after
correct
recommended
appreci
##icardial
hete
fur
further
just
heterog
confluent
includ
notably
##atic
appreciated
assessment
##domin
currently
gastro
placed
ge
##ail
recei
br
ind
when
trac
##lp
##ator
help
##athy
hours
infer
heterogeneous
received
hila
##osity
tortuosity
hern
streaky
spine
inferior
brach
##phalic
##ill
patients
##cephalic
presumed
##we
##opathy
##ler
##ime
exagg
exagger
followup
significantly
secondary
min
only
limited
vascularity
hernia
intubated
gastric
smaller
descending
poor
particularly
##erv
inv
pericardial
evaluated
sit
##tated
valve
rotation
revi
indistinctness
aspect
##iocephalic
##itone
helpful
brachiocephalic
projection
review
##iled
positioned
several
assessed
asymmetr
early
##alysis
hard
##ially
##sc
displaced
##bg
cabg
medial
hia
##dra
withdra
withdraw
lym
##meter
susp
hyperinflated
##enting
one
gastroesophageal
##rotic
disten
tw
##cy
invol
gen
##nob
knob
align
reposition
two
were
extending
##pecially
gener
remainder
especially
rotated
##dies
sinus
posterior
widened
tissue
time
pneumom
##sider
ins
nodular
coiled
pneumomediastinum
consider
##rha
##orrha
representing
##nced
hemorrha
abs
##inant
trace
loop
hemorrhage
##usion
marg
sp
ventilation
margin
fully
absence
##onou
pronou
withdrawn
pronounced
vena
orog
cava
##cency
degen
orogastric
##ension
predom
parts
##ware
predominant
##late
##let
degenerative
mu
##ration
##ery
nodules
##ically
hardware
enti
##rahilar
subtle
surgery
collec
##yond
beyond
##lacement
met
go
##venous
situ
completely
cha
##udies
studies
##gmental
correlation
clavicle
defined
images
veins
entire
remaining
hiatal
##ution
##dominal
ax
need
transvenous
partial
atrial
##round
resolution
longer
lies
distribution
##ansion
up
##ente
old
tension
high
dilated
his
pa
inser
subsegmental
##ubation
perip
obscuration
dep
drains
ne
##ira
coursing
##oper
regions
proced
minor
##ste
##lerotic
##iratory
##ies
progressed
additional
##umeral
apic
bronchus
collection
history
##ues
##hout
diameter
markedly
cerv
reviewed
cervical
tissues
##ghout
throu
throughout
##qui
op
clearly
##int
included
bowe
##ization
bowel
involving
mm
accentuated
##ised
inspiration
##ms
angles
##hero
athero
positions
atherosc
hyp
##olog
vers
fis
plate
##current
versus
tra
##rect
##rib
about
fissure
##lling
shar
respec
infiltrates
respective
##lder
abdominal
##ribed
mas
##vening
lucency
##tern
##hap
sharp
##most
##eared
##timal
##welling
indwelling
##oden
fund
caus
ending
infrahilar
space
pneumoper
supervening
bronchogra
shoulder
appeared
head
fundus
she
good
procedure
overli
heal
advised
man
even
##oma
catheters
##vicular
close
##cribed
orig
predominantly
extrem
apices
azy
clinically
origin
azyg
described
##uction
bi
much
aerated
atherosclerotic
bronchograms
##gno
##hed
##olio
##lavicular
inlet
repositioned
##ds
diagno
inflated
inspiratory
##like
##ronchial
toward
fib
##ome
almost
mit
short
av
fail
##pical
mitral
healed
##oliosis
mere
merely
##eding
##rosis
aside
##pite
despite
failure
##lain
##nne
dou
para
##tional
fields
massive
lesion
days
distention
leftward
exaggerated
lymp
discu
ball
entirely
diagnosis
ill
##oon
##ulmonary
balloon
erect
appropriately
##tain
replacement
##ones
##ris
such
redemonstr
##ases
##ump
where
located
definitive
##opulmonary
worris
worrisome
mal
yes
##ctomy
zones
thr
discuss
off
##terday
azygos
yesterday
##long
##ious
infusion
presumably
imaging
##entesis
discussed
does
access
optimal
rou
concurrent
##itoneum
through
##use
terminate
coil
sheath
ma
pump
cleared
hemidiaphragms
deform
bronchial
whether
alignment
see
elong
##ulation
spinal
##ole
ett
lympha
scan
asymmetrical
loops
pneumoperitoneum
##ibr
defibr
severely
##ventional
accentuate
caused
defibrill
spec
collapsed
esophagogastric
defibrillator
decomp
##ens
laterally
##ternal
haz
##denopathy
nondi
lymphadenopathy
approach
cardiopulmonary
definition
towards
chin
##endent
remarkable
respectively
##heral
radiographic
anterior
dialysis
peripheral
sharply
##edic
perib
hole
oc
rightward
##nnel
atten
demonstrate
extreme
specific
##ning
10
##equ
obscures
intro
clavicular
channel
introd
medially
conventional
replaced
suggestion
hilus
##cid
external
##iber
caliber
dependent
gran
##aque
explain
appreciably
dobhoff
##itoneal
te
##pid
si
##oint
prec
nearly
granul
##cing
##xp
supr
##aclavicular
##verse
resul
hemo
supraclavicular
##acter
##rop
whose
had
expansion
apparently
##ded
##ises
raises
views
unf
##ailable
joint
##stended
available
##trac
interim
##tributed
decompens
##vin
convin
humeral
incid
tracheal
##uration
convincing
##termin
##bar
suspected
##iguration
##dialysis
nondistended
hemodialysis
lum
configuration
elongation
decompensation
obscuring
doub
redemonstrated
bene
largely
##resp
scoliosis
doubt
beneath
perhap
##existing
perhaps
rather
resp
arteries
rounded
peribronchial
##aracter
incomp
##estion
repe
question
suspic
##uring
character
corresp
##ology
unfol
their
silhouetting
incomplete
foc
continue
##tered
obvious
hyd
transverse
hilum
pattern
##tension
ray
result
clavicles
focus
##ily
##atation
##lor
limitation
platelike
extubation
wire
differential
dilatation
aligned
hypere
site
hypertension
incompletely
ling
##osc
inserted
overlies
##illa
coron
axilla
obli
attention
specifically
hyperexp
##fact
##illary
fran
hr
sati
##sfact
retrac
frank
satisfact
##ying
##ylor
##ction
satisfactory
past
##uff
##ground
##ca
##cus
axillary
outside
resolving
background
##less
todays
tak
lymph
##peritoneal
ards
fusion
##ertain
progressive
fibrosis
##and
traum
betwe
##if
indicative
intraperitoneal
coronary
between
##alized
ribs
additionally
generator
##ase
ce
cop
##ord
##nce
sized
difference
eff
transesophageal
##etermin
##xation
##teb
conges
aden
##ques
insertion
cuff
prost
pylor
##othorax
##ection
scat
full
distension
copd
indetermin
extremely
dic
ek
indeterminate
ekg
##uous
##bol
mak
pla
##ag
##roid
devi
##diaphragmatic
exception
adenopathy
##tes
pleth
disc
intubation
rest
evaluate
bul
cross
##iness
sep
radioden
verteb
haziness
##oscop
plethora
##position
thy
clearing
##ature
##ising
reticular
##minis
poorly
incidental
thyroid
repeat
embol
coexisting
##curred
obstr
hyperinflation
prosthe
##here
requi
sul
raising
resection
resulting
stably
bia
##lement
quite
element
gra
##pic
contr
conspic
combined
fixation
##dow
uncle
overinf
##opaque
biapical
trauma
unclear
ser
superiorly
meas
atelectases
radiopaque
positional
subdiaphragmatic
suggested
manif
contrast
manifes
els
##ventric
##leno
being
rec
##ewhere
scattered
elsewhere
##ventricular
few
gleno
sk
thir
##ep
##lung
vag
##leph
teleph
cephal
mater
term
predomin
taken
aic
midlung
diminis
colon
sulcus
material
aicd
mor
##uoden
radiographically
adequ
conspicuous
##ju
ascending
decreasing
preceding
##using
correspond
diminished
biop
malposition
deformity
fat
thoracentesis
third
pacing
band
move
ports
diffusely
filled
complication
generally
basis
oper
##otic
##sy
##humeral
mainste
mainstem
hema
appearing
tract
diaphragmatic
##spec
far
##orted
operative
causing
followed
##uced
hemat
##astatic
poin
shu
##yste
metastatic
needs
bore
fav
rapid
distributed
coils
vague
curv
includes
fullness
biopsy
##sities
##est
pleu
beca
manifestation
shunt
##neur
ventilated
because
##neurys
down
please
##urg
densities
different
nonspec
nonspecific
thoracostomy
bronchoscop
metast
glenohumeral
bronchi
unfolded
##ses
##way
##lex
contusion
ann
relate
paratracheal
radiodensity
diaphragms
##hery
displacement
account
periphery
lumen
dictation
duoden
##lat
advancement
traver
deviation
hematoma
##am
##ner
##ypical
##table
sutures
shif
vertebral
ble
pus
tips
observ
bo
detail
bones
inferiorly
skin
duodenum
persis
bre
forward
indicating
##ensi
underg
technical
crosses
malpositioned
pushed
observation
path
secu
hemidiaphragmatic
asymmetry
telephone
##oid
##ented
##theless
flex
manner
lingula
aneurys
radiation
##oracic
confir
accentuates
limiting
indication
undergone
during
lord
altern
enlarging
artif
sha
##ap
##other
they
another
occurred
nex
##vocal
##quivocal
limitations
lordotic
next
humer
portions
repositioning
plaques
pointing
##enic
airway
heads
param
##edicated
effort
confirm
##osis
##flow
##ound
##issural
overlie
alternative
##monic
##allic
outflow
metallic
congestive
adequate
##ible
##tis
##ancy
reported
accompanying
confluence
never
biventricular
humerus
symme
shap
sensi
##ression
discre
introduc
respon
four
##ink
contribu
continuous
coar
posteriorly
bronchoscopy
dedicated
##fore
therefore
lobar
arterial
neo
overinflation
cente
what
##ogn
granulom
granuloma
recogn
breast
centered
point
heav
sited
serious
discrete
introducer
ir
ic
dire
makes
icd
##allow
##umulation
graft
bleeding
##regular
noting
lobectomy
##ectasis
six
irregular
read
retracted
nevertheless
ground
indicate
fain
war
##jor
cause
##ocentesis
regard
borders
accou
major
gl
##ile
##timeter
exaggerating
metastases
glass
consolidated
shallow
accentuating
shifted
shadow
responsible
faint
cardiophrenic
##ize
diure
blur
reduced
suspicious
pylorus
required
bronchiectasis
three
suspicion
artifact
diuresis
pleur
cavit
streaks
function
sinuses
characterized
var
malign
scanning
results
fore
tem
explained
pleurx
foreign
cen
une
##pt
##rom
deline
##olumbar
thoracolumbar
definitely
consideration
highly
hyperexpansion
edge
impos
structure
detect
asymmetrically
deformities
questionable
traverses
alternatively
impossible
fe
##tra
inj
##thoracic
blurring
fir
##erved
transp
##ropneum
hydropneum
hour
##pass
##ok
sup
##uctive
valv
centimeter
first
##nx
##surg
##xta
##arynx
juxta
report
node
warran
eti
condition
while
bypass
postsurg
thoracocentesis
scap
##enetr
chain
pleura
secure
paramediastinal
postsurgical
then
##ulmonic
##itus
cta
kink
pedic
hyperexpanded
malignancy
pedicle
og
##yopathy
reac
cardiomyopathy
perm
prosthetic
accounting
##ient
##itis
conve
reduction
reflective
stents
traced
hydro
morning
directed
hydropneumothorax
##tiv
##ulus
pneumonic
strong
nodes
##icardium
introduction
corresponds
certain
fissural
##eous
##nding
gaseous
intrathoracic
looped
warranted
based
subp
necess
hypo
fibrotic
lesions
joints
15
masses
##port
too
##ogenic
consolidative
sitting
cephalization
##tivity
look
common
ago
standing
surround
hyperlu
generalized
obstruction
centimeters
fid
##air
##last
##uci
##ber
acrom
favor
subpulmonic
fiduci
12
##bronchial
sideho
fold
chronically
recognized
##lasty
sidehole
##ling
##yp
uncertain
##irc
considering
persisting
##lf
atypical
alone
yesterdays
fiducial
care
##ales
##lerosis
deter
enters
coales
measuring
aneurysm
surrounding
seven
##standing
suprahilar
feas
##tous
##arrow
consequ
reflected
longstanding
upward
annulus
cavitary
feasible
consequence
circ
ep
typ
##tem
proper
##pleural
cuffing
sensitivity
injur
total
recurrent
segm
##self
itself
partly
components
coiling
retraction
seriously
##gus
##emin
impression
limit
suppor
##esophagus
notable
narrow
##ioc
##xtro
dextro
##ually
##ectomy
wide
around
exams
examinations
shoulders
lumbar
fact
##ylet
##stomy
stylet
##arency
projected
marker
##ympt
upon
delineated
##ymptom
doc
##gn
##medi
##arily
naso
cho
oste
observed
indicated
accumulation
hiatus
emboli
transparency
type
docum
bone
symptom
tubing
localized
considerable
must
obliqu
cholec
plu
##penetr
unus
sixth
etiology
flat
me
##lateral
remote
underpenetr
predominance
symptoms
obliquity
last
##teric
cage
probe
local
obscure
indicates
causes
unfolding
unequivocal
acromioc
##lime
##nant
millime
remnant
infiltra
extremity
oblique
##ystectomy
patholog
flexed
coarse
segment
cholecystectomy
acromioclavicular
tor
##over
suture
recently
emphysematous
hemothorax
exaggerate
pneumopericardium
haze
septic
infiltrative
##ading
##mu
##enteric
reex
evol
correlate
double
contribute
neoesophagus
nasoenteric
reexp
##lan
##tions
track
sideport
subsequently
minu
pyloric
flatten
nor
vp
##loc
##uation
opacified
deep
disse
mostly
cavity
stim
precise
millimetric
tre
wed
##fth
stabil
dist
portably
fifth
extra
opaque
lingular
board
##inear
##ilinear
cavi
inform
curvilinear
shaped
temp
supporting
unequivocally
evolving
syste
##las
##mine
##ken
seating
lesser
necessary
determine
torso
wedge
blo
ph
##ulator
prim
involv
dextrosc
dissection
sple
##mm
##olateral
##arely
subop
##atter
persistently
visualization
visualize
injury
flattening
dextroscoliosis
suboptimal
##mber
pneumonectomy
repair
transju
chamber
##roplasty
symmetr
convex
certainly
stimulator
stabilization
blood
transjugular
barely
ke
muc
numer
phy
pull
retained
motion
alread
infar
fourth
numerous
already
cp
pas
abut
pneumonitis
width
detec
coalescent
physi
aff
##py
##orary
secre
##tur
##cies
##lob
##cencies
measures
curvature
heavily
valvular
temporary
##siding
contain
retur
commu
sclerotic
##inflated
unusual
keep
ec
ivc
water
reach
residing
##trum
antrum
acqui
making
information
secretions
communic
keeping
epid
##onding
immedi
films
corresponding
congested
obstructive
granulomas
reexpansion
epidural
each
nature
##de
##ason
dec
hand
inclusion
respiratory
discon
cephalad
passing
foci
##bdominal
##pping
reason
attribu
cann
drained
thoracoa
arth
filter
accentuation
collections
prosthesis
scapula
system
thoracoabdominal
thus
##anti
ventilat
include
permits
return
ventilatory
11
##best
##tinal
asbest
follows
characterization
morph
cavitation
discontin
##lay
##ot
##nted
centrally
##atory
##lamm
resultant
seventh
epicardial
factor
communicated
hal
##ek
##ism
##nch
exis
loculation
predominating
circum
tracking
asbestos
morphology
glob
ini
raise
##atous
embolism
juxtahilar
strongly
hyperlucency
half
24
##dis
prod
disti
##atosis
spar
sheet
best
pe
us
win
##ced
##bitus
##ncer
lucencies
cancer
sides
habitus
aspects
##testinal
narrowing
attributable
will
##cin
inflamm
locations
gastrostomy
symmetric
granulomatous
hypoinflated
primarily
sparing
window
mis
pass
ru
tur
##lous
##ified
##umor
##entally
carr
cardiogenic
reques
make
incidentally
bullous
separ
careful
cran
tu
tumor
##nam
##uis
cant
##tinguis
progressing
compression
redemonstration
heavy
splenic
bed
how
lying
##portion
##mo
##tero
liver
distally
esophage
soon
##gging
apicolateral
##likely
##nneled
favoring
downward
annular
tunneled
latter
##alle
isin
cardio
##ocardi
direct
unlikely
explan
significance
calcific
##osure
folded
correctly
shape
readily
reacc
plugging
elect
equivocal
fragm
mig
peg
##iter
##omatosis
attributed
distinguis
magn
bodies
minutes
involvement
mucous
requested
esophagectomy
bub
later
none
typical
intestinal
carcin
exc
desi
week
similarly
discord
rapidly
pathology
meanti
explanation
bubble
meantime
via
##oned
##art
reache
preexisting
stra
true
accur
curled
deno
vertic
saf
intravascular
discover
overinflated
looks
acquired
distinct
##terolateral
discovery
##ob
##icient
##taken
orient
suff
airless
great
showed
densely
goiter
neither
hypoph
underpenetration
turn
carries
fragment
safe
orientation
##ser
##tex
##tium
interp
eventr
improve
paralle
shown
relates
occu
extrapleural
discontinu
hypopharynx
ia
say
##lt
##iented
##tence
##nge
##eral
##ubitus
reass
oriented
refer
chronicity
##cends
procedural
azygous
obliter
kinked
favors
mistaken
reassess
hig
ni
stem
##king
##ind
##omog
##pple
posi
percutaneous
disloc
demonstration
interstitium
atrio
infiltration
five
deposition
bulla
felt
treat
distinguish
##text
occup
higher
nipple
eg
ech
##mation
##acu
##ili
contribution
context
recurred
seque
assist
stability
absc
unilateral
margins
require
coars
##omogeneous
sequela
ben
demin
pad
plain
##level
cordis
blunted
multilevel
##clusion
neut
avoid
decubitus
bedside
sufficient
positive
treatment
abscess
cx
##ored
##bp
##olu
preoperative
determin
lie
##ecting
age
active
strip
extension
vessel
suspect
##junction
persistence
affecting
initial
cxr
##num
##semin
conjunction
sizable
range
radiography
##ances
leading
dissemin
denser
giving
septal
aneurysmal
infarction
magnified
accurately
eventration
iabp
done
vir
##eju
##rup
##tead
##acer
cap
##ography
event
##ats
exposure
withdrawal
diameters
repeated
deviated
confirmed
scapular
document
documented
distortion
physic
cannula
reaches
stripe
bra
homogeneous
ky
once
ren
yet
##pro
##iation
##ssing
##ngular
tubular
attem
overla
midportion
showing
instead
atherosclerosis
attenuation
points
abutting
kyph
aort
bar
bili
cro
tree
##rence
##tig
concei
##rapy
radiolu
ensure
endobronchial
posterolateral
folds
combines
descends
detection
##currence
elongated
tell
effect
radiodense
various
pathologic
globular
interpre
atrioventricular
echocardi
overlapping
biliary
conceiv
demon
##age
##ium
##arc
##veal
retic
compare
normally
allow
anat
tria
##oughly
##osp
##odular
alongside
sectional
peripherally
discordance
dislocation
crossing
able
hous
lip
roughly
wet
##rated
##mated
pneumo
##stra
reveal
sure
subpleural
##usted
entering
proximally
surface
round
team
dictated
sensitive
arthroplasty
inflammatory
##namic
discontinued
neutral
##proced
demonstra
triangular
dim
flow
vats
##30
tuber
beh
exact
##ressed
##och
##perature
resides
sclerosis
postoperatively
definitively
questioned
irregularity
shadows
temperature
valves
symmetrical
##otomy
reaccumulation
migrated
desired
renal
house
dimension
bro
qual
scre
##itic
##itation
##asp
##ital
those
centralized
monitor
##land
core
adequately
airways
detectable
containing
behind
quality
eigh
fem
flo
hu
##tor
##fusion
##erve
content
##tailed
seem
asci
importa
termination
regurg
identify
##ondral
destr
mind
plaque
flexure
properly
existed
tuberc
##aspinal
eighth
ascites
regurgitation
big
cv
jeju
ske
therapy
##ale
##icus
detailed
who
paraspinal
monitored
ventricul
considerations
mand
ruled
disseminated
screw
huge
hd
hosp
ker
rod
ste
stri
##lant
##oti
##ley
##letal
inte
##roph
caroti
exacer
cardiomediastinum
##seal
impac
slow
excludes
postproced
##lobar
thought
hemody
mainly
projectional
##operitoneal
bands
variation
commonly
underpenetrated
phone
waterseal
immediate
returned
pel
exchanged
determined
echocardiography
tubercul
skeletal
ventriculoperitoneal
hospital
kerley
carotid
exacerb
cou
sour
unal
##cm
##vis
##ject
##tator
real
interfac
radio
focally
across
comparable
rotator
general
lymphang
respect
secured
hyperlucent
totally
detecting
immediately
usually
reassessment
barium
conceivably
source
unaltered
cer
ip
lv
##lator
##ug
##yed
##yst
##arding
##til
##ention
##ending
##iculated
lucent
seal
milder
##iple
priors
##oplas
##cule
##cardiogenic
tricus
tracheo
noncardiogenic
ventilator
drug
brachy
exaggeration
spiculated
grad
metastasis
osteop
electro
vertically
paralleling
virtu
physician
lipomatosis
striking
##entioned
tricuspid
her
##fissural
inn
##silateral
noti
##nces
recurrence
implant
##structive
accep
ngt
pack
period
##splaced
scale
mucus
closely
nondisplaced
telephoned
conveyed
upwards
demonstrating
femoral
mandible
lymphangitic
ipsilateral
brachycephalic
virtually
acceptable
20
act
esti
fac
hor
ile
ring
##lin
them
##ency
##istic
##old
seed
exce
subt
having
##lus
white
##limin
triple
regarding
restric
thoracotomy
crowded
redistributed
depic
colonic
unexp
reaction
coarsening
radiolucency
jejunum
lvad
tracheobronchial
my
mentioned
nin
nerve
pet
##ger
##uter
##neath
##izontal
thin
formation
object
arm
underneath
superimposition
advancing
masslike
intrafissural
nodularity
considerably
looping
peribronch
taking
traumatic
kinking
carcinoma
##obstructive
anatom
couple
horizontal
ileus
ninth
cough
did
grow
lack
outer
sarc
ten
ul
##ged
##ighted
##ulating
cardiovascular
order
##ocy
##ystic
multiloc
##ucity
fractured
paucity
replacements
skinf
traversing
shifting
fever
##traum
pathological
infarct
ecmo
inclusions
circumsta
##eralization
contents
bigger
pelvis
sarcoid
multiloculated
cystic
sits
##mp
##matic
##sures
orific
interlobar
pressures
against
##anent
weighted
##arenchymal
##tured
postobstructive
hep
perivascular
costal
correlated
exaggerates
situation
whereas
optimally
vertebroplasty
contributing
permanent
markers
plug
pharynx
cranial
greatly
obliteration
branch
floor
tuberculosis
interface
estimated
orifice
13
eight
oral
##ging
##wer
##ulations
##paces
##edian
uppermost
viral
presentation
until
##ato
dramatic
continuing
relia
costoch
empy
coin
clamp
collected
needed
depending
explains
obviously
cell
paramedian
varia
minute
abuts
denote
seems
important
postprocedural
skinfold
costochondral
empyema
pse
redi
rule
##of
##oing
##nti
##uce
##des
##tim
caring
pulmonic
prelimin
comment
caval
lev
clar
uni
possibil
ribca
curve
transbronchial
display
going
mask
healing
avr
massively
introduced
accounts
necessarily
weeks
strad
destruction
gradual
actually
pseud
redire
preliminary
ribcage
anch
case
ong
way
##ts
##sient
contig
pole
abrup
appearances
discern
##tical
levels
differenti
roof
displac
involve
occ
embolus
series
bandlike
pleuro
reaching
factors
benef
demineralization
kyphotic
broken
impaction
exceeding
depicted
##atoce
possibilities
anchor
ongoing
contiguous
abrupt
fair
mic
opp
pain
spaces
##otal
##ck
##cess
##00
thelow
offic
##iscule
becom
power
exclusion
endogastric
subj
subacu
##oplasty
acutely
fluct
posttraum
transient
##itect
architect
miniscule
neoplas
bullet
cavitated
arthrop
produce
separately
referring
occupies
subtotal
uniform
exceedingly
##cessful
thelower
subacute
posttraumatic
gu
gall
oroph
pu
penetr
tenting
##pon
##idi
##iding
##fur
##han
##entation
think
overlap
overlay
enha
preserved
apart
##troph
aspir
simul
resident
hemithoraces
transfusion
hypertroph
neph
##ologies
bifur
##oscopy
glenoid
pointed
pleurop
bronchoscopic
confirmation
majority
etiologies
cranially
fragments
attempt
screws
bifurc
14
cyst
late
med
mim
nond
ta
tav
tam
##osi
##iency
##ynamic
##kn
##arth
##ording
intrac
often
##iciency
pneumocy
pneumatoce
##othoracic
segmental
org
##izing
suc
interspace
interposition
##oca
evacu
enough
imping
##stis
moreover
##ciding
asses
wider
simple
according
situated
depression
characteristic
scatter
bulk
contributes
hypox
involves
rods
exacerbation
coinciding
officer
##ponade
pleuroparenchymal
tavr
tamponade
pneumocystis
pneumatocele
evacuated
sy
spread
t1
using
##duoden
##cence
##cav
isout
##actu
##ralateral
##icial
##tance
really
orth
compens
proved
alter
baseline
##cluded
represented
regional
visc
surve
##tively
mediport
##tention
gastroduoden
collecting
inspirational
##ologic
accessed
decompressed
occluded
flexion
artifactu
direction
transparent
ectatic
circumsc
run
carefully
carcinomatosis
bullae
slowly
whiteout
sarcoidosis
hepatic
beneficial
fairly
oropharynx
##idity
aspirated
bifurcation
organ
successful
gastroduodenal
artifactual
18
fine
gland
mec
sum
##eve
##ply
##justed
##tectomy
##eralized
##ominant
toge
##stment
interven
intermedi
aband
pericardi
##sisting
contralateral
largest
##vicothoracic
retrosp
unkn
simply
veil
correl
##dles
##licated
##ardiac
accum
dilation
mastectomy
predominately
contusions
readjusted
occupying
benign
demineralized
cervicothoracic
ultr
circumstances
become
fluctu
##ocaval
orthop
circumscribed
together
abandoned
retrospect
unknown
16
dominant
equ
kid
tend
##eval
##pted
##pidity
##void
thecav
##onodular
##asound
##omp
##ulonodular
##ist
prep
moved
state
rapidity
analysis
leak
distance
##antif
##sides
representative
approximate
##ortication
adjusted
technically
processes
cover
quantif
filling
draining
scars
##nctate
thickened
##illance
bronchogram
##yloric
bulging
details
certainty
determination
localization
symmetrically
contains
decortication
reasonably
produc
inflammation
vertical
attempted
interpretation
reticulonodular
allowances
osteopenic
electrodes
subjacent
punctate
assessing
surveillance
mechan
intervention
intermedius
ultrasound
orthopedic
kidne
thecavoatrial
quantify
batter
dys
ell
hol
ovoid
##unction
##function
##asion
##nds
##ndant
conne
##pped
besides
reading
interventional
proble
perf
presented
##ticip
adminis
unless
assum
outlin
curls
##ortun
reflection
##lained
anteriorly
characterize
sites
injuries
narrowed
treated
##desis
global
passed
electron
cvl
intended
unexplained
variant
gallst
synd
visceral
mechanical
battery
ellip
hid
ide
ly
light
mi
pur
rup
riding
##app
##ua
##un
##rome
##itant
##stic
##hing
##50
island
##oration
concom
##tating
beg
rever
reeval
uncomp
atte
station
##ipment
##ograft
endograft
terminal
##usc
atriocaval
callus
angulated
angulation
involved
depart
explaining
manifested
shaft
epig
primary
mucoid
acquisition
##namically
nonetheless
captured
reticulation
hemodynamic
hemodynamically
implants
anatomic
grown
clamped
straddles
pleurodesis
latest
alterations
summation
equipment
##ticipated
syndrome
concomitant
uncomplicated
department
83
84
call
fiss
nine
oval
##17
##atures
##uted
##ition
##xed
##enous
##enia
inad
##estig
##rable
##itary
sequ
excre
capping
suction
proxim
radiology
evening
clearance
##valve
anticipated
endovascular
obtain
##tified
defect
expect
##ophy
residua
##cluding
##umerable
investig
insuff
marginally
paged
occlusion
##oscoliosis
##ify
requires
breath
recognition
accounted
features
reactive
circulation
obliquely
suboptimally
symmetry
physiology
ecg
cannul
reaccum
turned
aortopulmonary
corevalve
innumerable
notification
levoscoliosis
penetration
hypertrophic
nephro
electronic
elliptical
lytic
inadver
proximity
17
30
cr
da
musc
nur
##oarth
##gent
##mit
##fere
##acuation
##ility
##ission
##pacity
staff
deli
evacuation
##ectable
pericardium
##hyd
work
extended
##static
##ominate
apically
##oaneurys
finally
advance
cts
walls
nodulation
##gressive
##clusive
##uck
##ucting
indentation
spared
goes
paid
diagnostic
##acterial
##osclerosis
progressively
effec
plane
obstructing
prostheses
vagal
bleb
supra
securely
osteophy
unusually
tracks
##lasties
exists
migration
safely
reveals
innominate
notice
pseudoaneurys
occasion
neoplastic
arthropathy
guid
medical
hypoxia
dysfunction
fissures
nephrostomy
pseudoaneurysm
fo
lap
pt
##15
##20
##el
##uated
##ritis
##ification
##iolar
##ssion
##xic
##asi
##les
##enced
insi
##inning
##ffy
pulling
reverse
##tration
asc
commin
sizeable
overhyd
sublu
implan
anti
##cla
form
aggressive
##vered
month
fluffy
ijv
loculations
knuck
distends
heterogene
traceable
##ologist
discussion
concurrently
configurational
serial
feature
injectable
distorted
##lastic
initially
interpreted
stenting
peribronchovascular
peribronchiolar
reliable
displayed
architecture
mimic
compensatory
prepyloric
producing
ideal
beginning
sequence
excreted
inadvertent
##ferential
delivered
comminuted
overhydration
knuckle
bacterial
cre
cut
cortic
dem
num
pl
ris
tail
##eres
##gen
##gra
##uk
##dal
##con
##ves
##bl
##back
##zing
##03
##56
##ara
##ash
##ident
loose
toxic
##vex
beli
##try
append
comprom
rays
raised
proportion
##udal
overdis
lobulated
peritoneal
leuk
##lla
remained
adynamic
##ostal
supported
parac
worsen
fluor
posture
##ificant
sternum
expand
height
curved
adju
prominently
underes
increasingly
##issed
amounts
##iotic
appreciate
marginated
entity
sharpness
parahilar
coronal
##catheter
prostate
sulci
delineate
permit
looking
coalescence
supportive
##gnificant
osteoarth
discontinuation
referrable
reassessed
distinguishing
coarsened
sequelae
aortosclerosis
osteopenia
electrode
restricted
redirected
differentiate
displacing
anchors
take
impinging
pericardiocentesis
covering
kidneys
holds
administration
outlining
nurse
noticeable
insignificant
##clavicular
heterogeneity
number
believe
appendage
21
enc
flas
kne
our
solid
smo
use
vs
##off
##cular
##costal
##xy
##fer
##45
##wing
##thorax
##thing
##emia
pool
excur
appara
stage
intercostal
##ress
evidenced
contact
##clage
agent
inflow
##ronodular
trach
sometim
resus
relating
##venti
heading
visually
entertained
example
curving
resolve
##exis
##taneously
quanti
complicated
hemop
intrap
##rectomy
many
fibro
approaching
hydration
##oscopic
##ependent
warrant
widely
pullback
affected
circumferential
separate
separation
downwards
parallel
revealing
cerclage
face
seeds
restriction
unexpected
tenth
branching
reliably
clarify
redirection
risk
adjustment
knee
excursion
apparatus
sometimes
25
91
clus
ent
mediastin
missed
oxy
pate
rim
sem
tim
ure
wound
##eper
##ptal
##tment
##aortic
##noc
##upright
##undant
##ire
##cal
##sternal
##be
##42
ther
##timated
##tizing
isol
##eful
##ncy
cond
conclusive
##rotated
##rotizing
rela
retention
predi
assisting
pock
staple
inters
silhouetted
##ewire
deeper
immu
increases
intervally
midclavicular
closure
##used
examin
##dency
parase
##citation
compartment
pacs
viscus
settings
curling
essential
layers
##ondr
transcatheter
hyperden
semiupright
##inflation
necrotizing
fung
##entectomy
##oliotic
lymphoma
graf
differently
reportedly
delineation
hypoventi
circular
mean
segments
reexpanded
physiologic
useful
discordancy
contributions
documentation
effects
allows
exactly
broad
steno
exacerbated
tendency
bulky
running
problem
insufficiency
implanted
cortical
demarc
osteoarthritis
flash
smooth
pooling
resuscitation
cluster
entra
oxygen
isolated
pocket
paraseptal
90
duct
eq
eas
here
kep
put
sac
ur
used
year
##21
##ption
##oiled
##nom
##uity
##yme
##mission
##vas
##biotic
##33
##teral
##omedi
##hange
prev
prefer
excluding
edematous
stated
intervening
check
##ogram
lobulation
entered
subcen
likeli
anterolateral
hair
admission
consistently
refere
worst
unable
deficiency
relation
ossi
concerned
underinflated
##tysis
processed
##hood
confident
crowd
scout
scoliotic
##iohumeral
nonrotated
maintained
provide
heterogenous
invok
splin
entirety
100
takes
discoid
embolization
elements
conspicuity
hydrostatic
acromiohumeral
122
localize
systems
spleen
usual
directly
design
denoting
denoted
obliterating
physical
kyphoplasty
anatomy
destructive
cvp
objects
anatomical
displaces
enhanced
enhance
intracardiac
accordingly
correlates
connected
perforation
##ortunately
gallstone
hidden
ruptured
reevaluated
dama
guidewire
lapar
ascertain
antibiotic
months
toxicity
expanding
underestimated
hemoptysis
times
examined
##ondroma
grafting
stenosis
entrance
easily
kept
subcentimeter
likelihood
confidently
invoked
splinting
07
cy
el
ench
fa
fash
gut
ing
lig
lav
mr
mv
sig
##ella
##moid
##set
##32
##46
##rest
##tific
instr
##sic
##neumon
##tage
cardia
complex
##arer
sto
##arge
chemo
radiologic
onset
overly
clearer
perit
subcar
##ope
midesophagus
##antage
retrosternal
clos
maybe
intral
assyme
flus
##avitary
called
expiratory
artific
surrou
advantage
difficulty
progress
fix
degra
necrosis
intravenous
pectoralis
indeed
invasi
span
spur
procedures
unfortunately
record
thirds
bot
response
faintly
malignant
affect
product
cardioesophageal
exchange
brain
importance
facility
themid
myel
clamping
occult
micro
micronodular
architectural
simultaneously
nondependent
simplest
mix
epigastric
investigated
##mitted
effectively
osteophyte
ptx
subluxation
quantity
mediastinoscopy
relaxation
predisp
fungal
hypoventilation
damage
enchondroma
fashion
lavage
sigmoid
subcarinal
surrounded
invasive
2cm
52
amon
bur
boch
dynamic
esta
fla
iv
l1
lacer
neg
older
owing
pn
pc
panc
rv
row
sight
scen
sick
tb
t8
til
um
vic
##elling
##tom
##ament
##gr
##upper
##utaneous
##rid
##racheal
##34
##35
##58
##ario
##tila
##eded
##orting
##ords
inh
##sile
##sibility
##ines
##inity
##acia
notified
##uly
contrib
cartila
##ram
##radi
reint
##bles
##lectomy
preclud
pregn
preexis
appl
basolateral
interrup
lik
ablation
entry
##utory
subch
##valent
##opulmonic
anym
##adder
infra
others
##ansile
oblong
##ushing
unre
truly
##diaph
partic
regression
something
resor
postop
identical
shin
expansile
##ximum
broncho
bronchop
bronchogenic
costo
emer
know
angi
reduc
confined
conform
root
brushing
herni
spot
neu
evenly
shortly
maximum
scans
special
occur
effac
##tebral
bulge
vertebra
records
curves
recognize
ogt
segmentectomy
##lobular
reasonable
##laying
distinction
reached
interposed
determining
dissemination
aortopulmonic
radiopacity
circumstance
dramatically
opposed
neoplasm
arthroplasties
uniformly
cysts
##osite
intracavitary
accumulating
fluctuating
cannulates
workup
##dalek
##blis
overdistention
paracardiac
ureteral
urgent
##omedial
prevent
designed
mvr
stool
peritracheal
bottom
myeloma
among
bochdalek
establis
pcp
scenario
sickle
vicinity
contributory
cartilage
precludes
preexisted
subchondral
anymore
08
82
ach
bb
cutaneous
don
equi
eosi
fall
icu
larynx
sent
sol
tral
tear
tach
##point
##top
##ttic
##ax
##ns
##night
##gic
##glo
##ril
##rit
##iver
##ited
##dling
##ched
##bd
##04
##51
##53
##59
##jeju
theupper
##alveolar
##tell
##tency
##asia
##astri
##ngth
##eds
inten
##ested
##essive
##umb
##omal
##ember
conce
consis
consisting
cardioper
pulse
##tinodular
##itz
##phil
##phrenic
ascends
##iances
comple
caudal
opacif
##ewise
dev
decid
constell
prof
prove
##sep
subglo
justi
presenting
length
##iment
visibility
distribu
influ
presents
limb
replac
##nostomy
##nophil
##stitu
##ching
earliest
regressed
resected
postp
postradi
comparing
packing
improves
expiration
thoraces
multinodular
osseus
outp
extensively
collapsing
verge
association
give
technologist
role
##ends
swelling
scope
hemoper
##icking
intraaortic
disprop
induced
traction
herniation
projections
metal
highl
trapped
manome
diagnoses
shortness
lymphatic
dependently
resulted
thyroidectomy
elementary
measure
##justment
biopsi
operatively
traversed
irregularities
functioning
kinks
dextrocon
pathologically
treitz
extravas
reasons
peer
missing
excessive
accurate
##obular
discontinuity
dislocated
caps
documents
conceivable
demonstrable
integr
postprocedure
growing
infarcts
straddling
differentiation
opportun
opposite
simulates
mimicking
impinges
runs
organizing
correlating
gallstones
epigastri
reaccumulated
reaccumulating
mimics
warrants
patent
conduction
interstial
immunoc
preferably
ingested
ligament
closer
flail
laceration
pancre
tilted
reintubated
pregnancy
appliances
likewise
equivalent
eosinophil
trali
conceal
cardiopericardial
constellation
subglottic
justified
postradiation
disproportion
integrity
epigastrium
36
81
avascular
bal
bent
c7
count
ect
formal
fut
flor
mat
member
squ
tap
wat
##14
##19
##23
##24
##pen
##pose
##ability
##lig
##oard
##obar
##ie
##ycardi
##dered
##man
##coiled
##sensi
##his
##board
##44
##01
##onvex
##arable
##arca
##tine
##tible
##asm
##asarca
##nging
inapp
insep
institu
##intestinal
##insic
##ills
##omb
##ompr
##omies
##omised
##emic
##isod
##nel
contributed
##ubr
tooth
##teromedial
beam
##rap
##trinsic
seiz
ordered
prevascular
##iaortic
##ogast
stages
interlobular
sill
deb
deterior
profusion
overnight
##oconvex
endocardi
aliment
lobular
periaortic
impella
midway
anulus
anasarca
terminated
disch
disrup
disapp
sliver
inflation
infuse
##tically
minim
##overed
hemiarth
hemidiaph
centril
trun
abnormally
superfic
resem
aspirations
tracheomal
calcium
##prising
portal
surprising
outline
outlet
indirect
emphas
evaluating
##hot
redundant
multilobar
confused
compressed
esophagogast
hypersensi
##ceptible
##herical
recommendation
noncardiac
receive
rotational
genu
absent
spon
splaying
spherical
traverse
manubr
thromb
routine
decompression
1030
preceded
##roplasties
##cap
lympho
dictating
vertebroplasties
resections
grade
readjustment
artifacts
warranting
stronger
episod
##lank
distort
distress
distorting
cavitating
informed
phrenic
splenom
convexity
returns
exist
produced
turning
magnification
straight
turns
neutrop
revealed
tuberculous
gradually
subtly
myc
myocardi
horizontally
variable
levoconvex
masked
penetrated
hypertrophy
t12
accumulated
fluctuations
tendin
assuming
hide
mixed
attest
attendant
obtaining
expectoration
cannulate
muscle
supradiaphragmatic
occasionally
compromised
leukemic
fluoroscopic
intrapulmonary
fibrosing
##calci
hyperdensity
equal
saccular
checked
father
##neumonia
assymetric
flushed
fixations
spurring
pnu
unrelated
resorption
bronchopneumonia
costodiaphragmatic
angiography
herniated
dont
tachycardi
consistency
hemopericardium
dextroconvex
opportunistic
immunocompr
eosinophilic
ectasia
future
florid
inseparable
endocarditis
alimentary
discharge
hemiarthroplasty
centrilobular
trunk
tracheomalacia
esophagogastrectomy
hypersensitivity
splenomegaly
tachycardia
immunocompromised
19
23
28
4th
4cm
6th
7th
8th
830
aware
break
blastic
cvc
dome
ero
fli
found
hick
jud
nsi
pal
pills
stric
tort
tex
vast
##ether
##equent
##pm
##pin
##patic
##tog
##tue
##audal
##oke
##ni
##gency
##und
##uled
##ucted
##ylo
##mia
##mented
##by
##31
##36
##zone
##08
##57
##hes
##hepatic
##onec
##alectasis
##arity
iss
iscoiled
##entified
inner
##ers
nomin
##ilated
##uminal
##distended
##icone
##ull
##hable
##sions
##neumothorax
constr
consist
conclusion
##identified
##ropri
##rotop
locule
##olitis
reli
seated
selec
##phy
ascribed
coming
cardiomeg
atalectasis
normalized
canal
capacity
##therapy
star
##vertebral
silicone
##houette
dehis
consequent
prone
thym
ability
##ocrit
vascul
altered
altog
perceptible
submitted
subphrenic
##ached
##initis
##iring
intervals
midzone
anteromedial
picture
diver
##aning
##lucency
presently
approved
add
adhe
unin
unit
postin
identi
shrap
comparisons
thoracoplasty
arrest
observe
aorticopulmonary
advis
pacemakers
##ondylo
linearly
desc
hemithoracic
pacers
confines
swallow
sched
said
presump
recommendations
##ulent
disparity
inspection
heterotop
brachial
revision
withdrawing
insensi
spondylo
entities
page
open
optim
sharper
manip
original
originating
redemonstrates
decompensated
##ifying
sepsis
recon
materials
hematocrit
bleed
confirming
continuously
vari
hydropneumoth
reports
hydrothorax
hyperlucencies
coalescing
##iocaudal
osteonec
meta
pathologies
flattened
precisely
cavities
phase
##olaterally
attribute
carry
separated
craniocaudal
distinctly
eventrated
obliterates
echo
virtue
events
kyphosis
radiolucent
##ospasm
##rophic
impact
clarified
overlaying
nondedicated
nondilated
pneumatoceles
tendinitis
kidney
problems
purpose
purulent
rupture
reverses
muscles
effective
blebs
plates
tailored
proportional
takeoff
intraparenchymal
demarcation
hairpin
reference
laparoscopic
else
instrum
intralobar
artificially
mixture
negative
particles
solitary
profile
manometer
extravasation
tapered
disappeared
superficial
genuine
lymphovenous
distorts
myocardial
flipped
hickman
nsip
texture
nominal
cardiomegally
dehiscence
altogether
shrapnel
scheduled
heterotopic
insensitive
osteonecrosis
130
29
2nd
3cm
41
48
5th
5cm
6cm
74
9th
930
au
cbd
dd
dro
dated
dyst
elimin
fre
gir
grid
l2
la
leg
medic
plan
rm
rig
rll
sends
till
vent
##29
##26
##ele
##tula
##atric
##otraum
##genic
##rip
##rical
##ith
##med
##mediastinal
##mits
##ces
##cting
##sal
##sha
##vole
##bre
##flamm
##38
##37
##09
##went
##52
##55
##reading
##ars
##arcin
##ased
##enable
inc
inade
inside
##eration
##erance
##ining
##actically
##thma
##ndele
##eso
##umon
##dicular
##icirc
##embol
##isms
##ncture
##idental
##rol
load
toler
##stroph
##arynge
##ray
reoc
requ
retain
##tinent
uncha
##itous
setu
preproced
asthma
poly
mod
modi
modal
apperance
come
##izable
##ogenous
cables
stump
prostatic
prud
practically
radiologist
consolidate
##udes
changing
##vision
abundant
overdistended
##ocarcin
ended
peritoneum
perpen
pertinent
##aches
midly
ans
##fications
##ssa
terms
dislo
##trogenic
notch
##vice
retrospec
retrogra
approaches
clot
added
remission
##rement
supple
standpoint
remode
##lection
challe
clinic
eleven
cavo
basally
thoracoscopy
escap
simulating
##oses
bronchospasm
relations
multic
##quing
underinflation
underwent
reside
##bilia
quick
transition
##wards
accompanies
esophagram
##vasculature
fill
transmits
##rogenic
amenable
presume
presuming
section
thickness
necrotic
accidental
##odystroph
gastrojeju
heterogeneously
invoke
spare
spreading
depend
opening
fistula
masking
bile
accessory
roux
holes
occurrence
1000
1050
focusing
frankly
##cave
adenocarcin
plaquing
##aged
bulb
service
measu
recumb
malpositioning
##amous
pathog
confirms
recognizable
functional
juxtamediastinal
acromion
epi
typically
nasointestinal
osteodystroph
trendele
extrathoracic
returning
communication
strain
straigh
parallels
iatrogenic
obliterated
sufficiently
abscesses
preoperatively
virus
barotraum
radiolucencies
interpret
echocardiogram
compares
pneumobilia
flotation
hospitalization
interfaces
actual
exceeds
restrictive
coughing
ultim
coincid
clarification
displaying
discernible
guns
gallbl
simulate
nephrectomy
hypoxemia
t11
organisms
successfully
accumulations
tendon
prepectoral
produces
hollow
connection
assumes
outlines
reversed
reevaluation
hemodynamics
832
investigation
insufficient
osteophytes
fossa
overdistension
encased
semicirc
theright
compartments
demarcated
referenced
ossific
ossification
chemoembol
degrades
spanning
affects
burst
interruption
bronchovasculature
emergency
reduces
neurogenic
establish
completion
devise
decided
distribute
replacing
biopsied
squamous
inappropri
institution
deterioration
manubrium
neutropenic
erosive
palsy
##ullary
selective
##physis
starting
divertic
postinflamm
advisable
spondylotic
variations
hydropneumothoraces
augm
ddx
dystrophic
frequent
medication
ventral
##volemia
inadequ
tolerate
##aryngeal
requiring
setup
prudent
perpendicular
dislod
retrograde
challenging
escapes
quickly
adenocarcinoma
recumbent
osteodystrophy
trendelen
barotrauma
ultimately
gunshot
gallbladder
semicircular
chemoembolization
postinflammatory
04
40
430
900
aid
away
bl
bol
bat
bend
cres
covered
det
dating
dump
dash
er
fole
flank
gj
gro
get
lump
mou
marrow
night
native
oro
overe
phe
por
pen
pan
pect
plastic
rul
rise
rind
tng
table
vw
wax
##11
##12
##18
##22
##27
##eph
##earenc
##pha
##pus
##phan
##to
##ton
##tary
##tch
##tosis
##ata
##after
##lis
##oled
##ued
##uit
##upine
##ri
##ry
##riding
##rudes
##ias
##iet
##ieve
##ming
##cle
##hip
##br
##bow
##burg
##xte
##41
##40
##48
##wh
##where
##with
##align
##aries
intimal
intes
incon
##erant
##errant
##sin
##inar
##inous
##inser
##acted
##ilhouette
##ouet
##ouching
##ice
##uloplasty
##emer
##istinal
##isupine
##hannel
pleurally
##uberant
wiring
##roax
##ters
pneumothroax
##sthe
##ctomies
cardial
bears
##rame
##ratch
resis
reinflation
reinser
##tines
unchn
uncoiled
##lectasis
##itud
##tryp
seats
orif
orphan
##pharynx
precluding
pooled
extrac
extrinsic
exuberant
appearenc
##derness
caud
##ipient
intermit
silhout
delay
##atives
lowermost
proce
radiolog
##ographic
##vitation
aberrant
overriding
vascula
aller
alpha
ens
##ectatic
perme
subcu
control
contacted
catheterization
preserv
focality
ford
forms
lea
##llow
stoma
##gment
##gmata
discl
sligh
division
endosc
weight
replete
##noon
##roneph
uns
unresp
##chase
##ectly
junctions
acuity
interstital
signifying
pariet
superinf
superolaterally
##urous
##erect
identifies
chond
shor
shilhouette
pace
elevating
sternoc
stigmata
final
diffusion
concerns
medium
dopp
angled
verified
fixed
coexis
colectomy
redund
corrected
accomplis
confusing
confound
room
rotary
backwards
transhepatic
translucency
hypervolemia
semierect
ventricles
scratch
hemia
shifts
nonurg
nonemer
value
##tening
afternoon
receiving
minus
mineralization
absolu
degeneration
needle
depressed
deposi
optic
originates
diagnosed
paraesophageal
paravertebral
mamm
seeing
##xpanded
doubtful
respond
repeating
questions
hydroneph
hyperexte
axillae
hrs
retracting
fusions
##bolic
discri
rests
bulges
bullectomy
gravitation
contrary
recover
recrudes
manifestations
bronchitis
bronchiectatic
observations
undergo
alternatives
humeri
introducing
grafts
center
fellow
conditions
mornings
looked
surrounds
aneurysmatic
narrows
cholecyst
torsion
dissecting
stimulation
temporal
stimulators
cannulation
##artum
strand
strands
denotes
suffers
occupied
##iliar
posterolaterally
reticulations
jejunostomy
interest
##visual
##tility
##oplasma
physicians
faces
depicts
tenderness
##ocytosis
displays
discernable
benefit
becomes
subjec
fluctuation
overlaps
medistinal
t10
compensation
pericardiac
perfectly
administered
assumed
purchase
attending
849
breathing
worked
foal
food
subluxed
antitryp
create
creates
cutoff
##gram
compromise
leukocytosis
paracentesis
fluoroscopy
fibrothorax
patency
semisupine
conduit
hyperdense
equally
##nomen
laparotomy
cycle
elbow
mri
artificial
degraded
microcalci
predispose
predisposes
umbre
inhal
inhomogeneous
emergent
reducing
occurring
vertebrae
bochdaleks
achieve
intense
opacifies
postpyloric
postpartum
outpatient
highlight
disproportionate
counts
formally
watching
seizure
debris
minimum
hemidiaphgram
surprisingly
episode
mycoplasma
tendinosis
pnuem
stricture
torturous
issues
consists
relie
vasculitis
adhesions
identification
optimized
manipulation
metabolic
instrumentation
eliminated
rml
##ription
incipient
unchaged
preprocedure
modest
modality
retrospectively
remodeling
clinician
eleventh
relationship
multichannel
gastrojejunostomy
spares
inappropriate
diverticul
frequently
trendelenburg
bladder
bolus
dashboard
foley
groove
lumpectomy
mouth
overexpanded
phenomen
intestines
unchnaged
orphaned
appearence
intermittent
silhoutte
vasculatures
allergic
permeability
preservation
unrespon
parietal
superinfection
redundancy
accomplished
confounding
nonurgent
absolute
hydronephrosis
hyperextended
gravitational
cholecystostomy
antitrypsin
microcalcifications
umbrella
26
230
220
320
45
46
433
542
600
717
808
956
951
aa
af
acentu
bis
bit
bow
blank
cc
cic
colum
cement
cir
corac
cubitus
cited
dup
duration
eve
ever
eft
elder
fn
fx
fal
fasc
fec
fast
flowing
frame
gap
hone
ite
idi
ild
ili
kub
lam
ms
mural
morg
mail
osti
ostomy
pi
pin
pill
pumon
ri
rf
sle
sen
sear
sten
t5
t9
tal
targ
twe
tag
touching
vac
vol
vocal
waning
zen
##13
##ete
##eak
##pa
##pre
##pig
##pation
##pulmonary
##pillary
##pancy
##pneumon
##tte
##ang
##lined
##lty
##lind
##lves
##oar
##orem
##oalveolar
##oining
##ned
##ntered
##niotic
##neso
##gil
##get
##gement
##ute
##unc
##rd
##right
##iary
##isis
##ired
##iod
##ycom
##dose
##mate
##more
##mentectomy
##son
##stinguis
##vement
##vised
##bed
##bing
##bted
##boring
##bronch
##bdomen
##bling
##39
##za
##06
##wered
##54
##hel
##hen
##heal
##rel
##rees
##arone
##tiy
##asal
##nger
##leural
##ede
##orated
##orally
##orgment
##eness
##enza
instinct
intrinsic
##ercing
##sitial
##inder
##acath
nose
##ilun
##ouhe
##ountered
##oubted
##omon
##omegaly
##omatous
##ighting
##ighboring
##raluminal
##dic
##atest
##ices
##ulties
thereby
pneumatosis
##nches
conver
contained
concave
##idence
##idging
pleure
##roat
##rosthe
lost
toe
told
##olved
##oloalveolar
##ctor
##veolitis
pulmon
##rain
##rating
retr
regular
reidentified
revised
##itated
##trache
##nto
##nts
seeding
asper
exud
##iating
att
compan
states
opacitiy
intersitial
##ewed
##atitis
proven
thumb
throat
##sely
##selves
##resting
ones
overdose
##ock
pneumonias
alle
alveolitis
##ibut
perhilar
person
##egmentectomy
##ayed
subject
juncture
##minant
##opath
##opneumothorax
##cuitous
imper
midthoracic
midsha
midtrache
enlarge
enlargment
anast
anemia
placing
leav
leaning
##llular
hamm
distant
congestions
##ticulation
viewed
diast
##lux
retrocardi
retroperitoneal
##persed
##strate
##emonia
reflux
decreases
unun
unidentified
tribut
signify
substances
posted
paralysis
deflection
diaphysis
continually
comparative
representation
canted
elevates
draw
tracheoplasty
##ought
portacath
develops
thoraco
arg
arc
articular
approximating
##osal
##osternal
bronchopulmonary
relayed
patch
engorgment
cold
collp
costover
costosternal
folding
curious
anything
anywhere
adjoining
pigtails
assessable
difficulties
cords
corpus
undulation
undoubted
greatest
email
combine
atelecta
individ
indistinguis
layered
##kers
blunts
##cend
techniques
cooper
extraluminal
descend
##bilicus
sole
query
gasless
degrees
confidence
fills
backboard
transcutaneous
amniotic
amiod
sca
##enesis
##uccessful
presumption
complicating
##roure
##formed
quadrants
bibasalar
secondarily
intraoperative
intramed
nonvisual
fulminant
provides
furthermore
geome
independent
##atorily
followups
minneso
invasion
reviewing
hemorrhagic
marginal
spi
speak
marginates
marginating
##lets
papillary
paget
neighboring
hypoden
hypoplas
travel
manag
##uctions
bihilar
fibr
fibronodular
fails
failing
paragra
parapneumon
malfunction
malalign
maximal
deformation
rightwards
attenuated
107
10th
1020
1003
externally
unfam
focused
obliques
copy
##agni
septa
##oscopically
obstructed
##heresis
requisition
serpig
subdiaphragmatically
manifest
cephalized
hematogenous
shunting
vaguely
shunts
bronchiolitis
bronchioloalveolar
discrepancy
granulomatosis
breasts
irregularly
shadowing
blurry
varied
injected
injection
reactiv
hypotension
hypoinflation
sideholes
##lfth
fiducials
coalesced
circulating
osteob
osteotomy
plus
millimeters
remnants
stabilized
disconne
arthritis
114
1104
halfway
245
request
separating
##motility
fragmented
##iteria
distinguished
distinguishable
desire
discontinuities
says
referred
coarseness
pads
capable
branches
renewed
barrel
lipoma
##itical
femur
seeming
interesting
drugs
2023
estimate
facing
themselves
hepatoce
plugs
##timates
levo
pseudomon
abruptly
micu
subtotally
149
tapping
compensatorily
organized
pericarditis
fluctuated
covers
dysmotility
assume
begun
837
839
defects
crisis
criteria
critical
danger
occasions
ptbd
ascrib
former
plural
plating
underestimates
encountered
913
semilun
ureter
thermal
conclusively
interspersed
immune
means
meanwh
oxygenation
909
1226
cylind
failed
instructions
chemotherapy
intraluminal
spans
burden
neglig
umbilicus
##ridement
bronchoalveolar
conforms
neuro
effaced
effaces
prevents
established
achie
bbs
##jejunal
opacifying
deviating
distributes
influenza
replaces
output
highlighting
biopsies
capsulated
capsule
pancreatitis
conceals
disproportionately
watched
seizures
debridement
disruption
disrupted
minimize
hemidiaphram
resembles
resembling
emphasized
emphasizing
spontaneous
spontaneously
episodes
mycob
tendinopathy
pnuemonia
judging
constric
construct
locules
thymoma
addressed
uninter
description
presumptive
presumptively
410
dropping
girdles
planes
rigid
##atricial
reoccurrence
retains
modified
answer
supplemented
bulbous
measurement
pathogen
epipharynx
coincides
augmentation
inadequately
dislodged
detached
waxing
##ouette
reinserted
caudally
proceeds
radiological
disclose
unsuccessful
shorter
sternoclavicular
coexistent
hemiabdomen
nonemergent
mammoth
discrimin
recoverable
subjective
inhalation
pnuemothorax
diverticulum
unresponsive
aforem
acentuated
bisegmentectomy
blanket
cicatricial
column
circuitous
duplicated
elderly
falsely
fecal
honeycom
items
idiopath
iliac
lamine
morgagni
piercing
pumonary
rij
rfa
sleeve
search
stented
talc
target
twelfth
zenkers
pleurex
retract
aspergil
exudate
midshaft
midtrachea
anastom
hammer
retrocardial
ununited
collpase
costovertebral
undoubtedly
individual
indistinguishable
cooperate
amiodarone
intramedullary
minnesota
hypoplastic
management
paragraph
parapneumonic
unfamiliar
serpiginous
reactivation
osteoblastic
hepatocellular
semilunar
meanwhile
cylindrical
negligible
achieved
aforementioned
honeycombing
idiopathic
01
03
00
05
09
000
015
003
004
051
1cm
22
221
32
34
35
39
300
317
315
356
338
42
47
400
417
435
444
53
55
58
550
558
541
63
60
630
651
609
703
742
721
815
803
856
859
950
917
915
903
934
929
adi
ace
aut
aere
axi
aler
bloc
bold
bund
c5
c6
ced
chy
clu
cere
cases
coca
dx
dj
dor
der
dig
dub
ding
domin
dental
dail
dwelling
ey
eb
eli
easi
fl
fd
fortu
ga
gy
gent
hi
hip
hint
hind
item
jp
kin
ls
l3
led
let
lad
lll
lending
list
men
mes
mom
mut
matter
meso
nt
nj
net
ove
omitted
olig
py
pj
pou
pedi
pare
pec
pay
pure
pens
pending
playing
pie
phot
pheresis
rarely
sg
sal
spac
sort
specially
sound
sought
t4
t7
t6
tent
tib
tack
test
tpa
uz
upp
uip
util
vc
vas
vig
vom
vary
vns
wa
wal
wti
ward
wris
xray
yi
you
##10
##25
##eli
##evelop
##po
##pas
##pled
##pore
##placed
##tate
##ttle
##tran
##tress
##ather
##atu
##aired
##lid
##lied
##lothorax
##liple
##othe
##ood
##ocephalic
##ojejunal
##gragm
##uate
##uing
##ura
##utes
##ustrate
##rum
##ric
##rhy
##rual
##ritic
##iate
##ive
##iting
##iop
##iitis
##iel
##ymal
##ypt
##dates
##mark
##mulator
##mart
##missed
##cer
##changed
##cine
##ctive
##culus
##sation
##sular
##spaces
##vated
##vulus
##volved
##ht
##hib
##hart
##bral
##bora
##biop
##xes
##fre
##fec
##flets
##kled
##zed
##wised
##hem
theore
##allowing
##ream
##rehen
##arder
##arag
##tia
##tiating
##titive
##astro
##astia
##nged
##lesion
##left
##orn
##oric
##orous
##orded
##orily
##oroid
##orpore
##ense
##ential
intr
intu
inch
##erate
##sinto
##ace
##acinar
##thr
##ndid
notic
##ese
##esthe
##essible
##ounded
##omas
##omary
##ompass
##dited
##diton
##atelectasis
##ulate
##ulsion
##ulary
##ulous
##emed
##isation
##ister
##istent
thereto
thereafter
##never
##necom
##nectomy
##mall
pneumopathy
##ents
##nctu
concurrence
congen
##ide
effuion
plerual
##ubclavian
wing
wiht
luft
##take
##tangular
##roxim
lot
loer
toes
##orable
##ppy
pneumothra
##stream
##olds
##ctal
##earance
##raph
rea
rew
reen
reop
retri
reapp
##pact
##itly
##itting
##itched
self
##ediastium
atelectasi
preci
preven
predes
preferential
predates
asymptom
mode
movement
mottle
exem
exclusive
apposed
##iable
##houte
comes
compact
ede
edme
##ogenesis
atlectasis
comprehen
stagh
##dering
basoa
##celer
##celain
cad
candid
miliary
##ipher
##ipolar
##ipitated
##theli
##thecal
start
sizes
##ety
##ets
intern
interventricular
##houetting
decl
deple
delete
devas
deemed
consol
consult
conslid
ches
ranging
proving
propen
prom
prio
radial
radiating
##ograms
thre
positionned
##sesinto
##resh
##ressive
##olidation
##viated
online
overling
oversha
##ocate
pneumoniae
alway
lobulations
##ibular
clears
entero
##alyzed
pertain
perfusion
peristent
##utum
lobectomies
linea
subcomp
contrain
##acheocephalic
##opy
##achment
##irling
implying
midlin
midpoint
buttress
anesthe
aproxim
##added
places
##anced
##llate
##ssubclavian
hamart
aged
aggra
disorg
disorder
disuse
distrac
dismissed
otherwised
##anating
##anization
whole
##ibasilar
venogram
retroper
clothe
##pering
additon
##lies
##structed
oblig
obese
##stine
##stimulator
##omyeli
##ronod
##soid
worth
unan
unsta
unsure
unspec
airbronch
airspaces
##atomegaly
remove
trig
sinister
suppression
##stand
##stats
supports
##diagno
paralyzed
superadded
define
##cial
internally
##ionella
##erence
assump
##centric
##sided
##atively
acinar
acceler
infective
postulated
postbiop
continual
identifiable
chole
charge
choroid
shock
##ured
calculus
drap
drawing
explic
explor
expression
expressed
express
basalar
art
arms
arising
array
arrhy
lining
##osterior
bronchio
relocate
patten
patulous
extents
colap
collateral
distalmost
surpr
heating
visualizing
aortich
perif
perioperative
perifissural
perihepatic
perilesion
locate
locally
##quency
##ranial
infections
outlined
curl
dens
##losis
corro
cortex
undetermin
undulating
dose
doctor
emanating
undertaken
understand
angular
collapses
##imposed
superimpose
verb
verification
##exist
lessened
tech
##loaded
nodal
residue
residuals
coexist
desatu
redevelop
gases
transsubclavian
correction
reflections
whenever
confusion
conference
distend
esophagoscopy
cathter
transthoracic
transmit
hypervascular
hypertran
swallowing
switched
swirling
ample
doboff
saber
shield
scarred
presumable
somewhere
performance
indicator
seconds
nearby
intrapleural
intrathecal
confluate
disposition
nonobstructive
nonun
maintain
accessible
longitud
##tened
gastrointestinal
geographic
##ails
bridging
bracheocephalic
inferolateral
inferomedi
inferolaterally
hiatial
##meters
twice
pneumomediastinal
insult
spite
spines
sputum
margination
mets
situations
channe
axis
uptake
upstream
uploaded
hist
pair
paper
insert
depends
neural
##irator
apicomedial
opd
##ologically
verses
trained
trapping
##ribes
masqu
fundal
fundic
headed
extremities
azygus
diagnose
avn
avulsion
paraaortic
parameters
leftwards
discussing
illustrate
male
malacia
deformed
defibril
speckled
occluding
occlusive
specificity
1017
1045
1036
1011
1022
1040
granular
teh
sihouetting
precipitated
hemostats
unfused
lumens
doubted
respirator
repetitive
questionably
dilatations
satisfactorily
##ife
##ifies
generators
cephalic
efffusion
adenoma
cuffed
##aging
plethoric
discovered
restored
crossed
embolic
biatrial
serve
manifesting
recorder
rectified
recede
rectangular
cephalisation
materiel
predominate
diminishing
conspicuously
corresponded
correspondence
bioprosthe
operation
farr
favored
favorable
bronchiolar
annuloplasty
displacements
duodenojejunal
push
pushing
boxes
boarder
persisted
lordosis
grounds
fainter
shallower
blurred
varies
varices
febr
transplant
valvuloplasty
reactions
subparag
15mm
1533
1553
##berkn
fiducious
121
120
1242
1232
1244
1231
1255
narrower
osteo
osteoch
osteogenesis
osteomyeli
documenting
obliqued
meet
remotely
localiz
localizing
evolution
reexpand
sideports
wedged
stabilizing
chambers
convexed
keys
mucosal
passesinto
afforded
eccentric
correspondingly
decipher
handful
cannulating
1100
1115
1120
1145
1146
1124
1101
asbestosis
cavitations
existent
existence
globally
initiating
peak
windowing
esophageous
explanations
electrical
equivocally
magnitud
carcinoid
viable
stranding
##obasal
occupy
stemming
##iliac
stripes
aneurysmally
infarctions
##rupted
capillary
scapularis
##proved
aortocaval
interpreting
echocardiographic
tuberosity
screen
floating
floppy
tubercle
mandatory
mandibular
steep
stellate
intestine
impacted
impactions
pelvic
pelves
coupled
radioopaque
radiofre
generalize
lymphangitis
periods
2014
rings
anatomically
growth
outermost
##ocytop
skinfolds
hepatomegaly
importantly
clarifying
united
pseudoc
pseudoarth
discerned
differentiated
differentiating
micronod
##cked
office
bullets
guess
oropharyngeal
puncture
punctu
aspirate
transfusions
nephroure
attempts
bifurcations
medullary
tapped
tapering
intracranial
hypoxic
viscous
survey
organization
summ
correlative
perfused
perforated
electronically
ellipsoid
ideally
reverted
reversing
reversal
reevaluate
833
838
841
844
848
846
calling
suctioning
investigate
inadvertant
302
crypt
data
musculature
supraaortic
noticeably
guide
guidance
ptosis
implantable
formed
inadvertently
creation
crest
corticated
compromising
leukemia
fluoroscopically
heights
osteoarthritic
211
212
218
2146
encases
encompass
hemopneumothorax
fibrocalci
255
911
912
914
916
predilection
fungus
hypoventilated
meaning
broadly
smoothly
pockets
908
906
1001
1002
1004
1005
1008
1229
0730
cyberkn
ligation
##sichel
closures
assymetry
flush
fixator
products
predisposition
sigmoidal
525
dynamics
interrupted
infradiaphragmatic
particulary
resorbed
bronchopleural
angiogram
conforming
hernias
effacement
0812
825
826
tears
complemented
decide
influence
influenced
manometry
measured
excessively
pancreas
pancreatic
concealed
360
811
816
balance
match
matched
inapparent
instituted
sillouhe
sillouette
deteriorated
manubrial
thrombosis
thrombocytop
1030am
neutropenia
equalization
1945
breaks
strict
tortous
relief
adhesive
uninvolved
identity
describes
optimum
reconsider
reconstructive
747
girdle
legionella
##umonia
reoccurred
retaining
polyang
answered
dependant
measurable
pathogens
epihilar
straightening
straightened
coincidental
insufficiently
augmented
inadequate
dislodgement
batwing
crescent
crescen
getting
porcine
porcelain
penumonia
panacinar
pectus
pectorally
inconsistent
resistant
resistance
extracorpore
delayed
ensuring
leave
leaflets
slighlty
endoscope
endoscopy
chondroid
doppler
minuscule
deposited
deposits
responded
recrudescent
recrudescence
relieved
relieving
modestly
phenomena
phenomenon
intermittently
absolutely
aaa
bowing
coracoid
fna
ostia
sensible
tags
volvulus
##previous
##unchanged
pulmonale
attached
companion
alleviated
imperfec
leaves
diastole
tributaries
drawn
scaff
nonvisualization
geometric
spiral
speaks
pagetoid
fibrin
malfunctioning
malalignment
maximally
disconnected
seemingly
interestingly
pseudomonas
ascribe
neurostimulator
mycobacterial
constrictive
uninterrupted
discriminating
laminectomies
piercings
aspergillosis
anastomosis
0008
0047
auto
aereation
blocker
bundles
chylothorax
cerebral
cocaine
djd
dorsal
dubious
daily
eye
ebus
elimination
easier
fdg
fortuitous
gynecom
hiv
kincked
mesh
mutliple
mesotheli
oligemia
pyopneumothorax
pjp
pouch
pediatric
paying
photon
spacer
sounds
tacks
uzrd
utilizing
vigorous
vomiting
varying
walled
wtih
yield
young
##hibit
theoretically
##astrostomy
congenital
luftsichel
pneumothrax
reopening
retrieval
precision
preventing
predescribed
asymptomatic
model
mottled
exclusively
edmea
comprehensive
staghorn
basoapical
depleted
devastating
conslidation
propensity
overshadow
always
enterostomy
subcomplete
contraindic
anesthesi
aproximately
hamartoma
aggravated
disorganization
retroperitoneum
unstable
unspecified
airbronchograms
assumption
acceleration
postbiopsy
explicitly
exploration
arrhyth
bronchioalveolar
colapse
perilesional
undetermined
desaturation
transmitting
nonunion
longitudinal
inferomedially
channels
febrile
subparagraph
osteomyelitis
magnitude
radiofrequency
pseudoarthrosis
punctuated
cryptogenic
encompassed
fibrocalcific
cyberknife
sillouhette
polyangiitis
extracorporeal
imperfecta
gynecomastia
mesothelioma
02
020
042
021
032
044
001
1min
27
2min
250
217
215
233
226
31
37
330
350
342
333
332
346
334
335
314
319
323
324
331
336
329
337
312
318
3rd
4r
4h
44
4am
450
415
420
442
432
446
453
419
423
401
436
438
437
427
440
50
57
5am
500
517
556
521
532
534
504
559
514
508
557
537
552
506
510
68
66
617
615
603
621
632
634
624
601
657
629
618
648
654
7mm
730
700
750
715
756
745
733
732
753
719
723
724
701
731
708
757
729
727
739
725
8a
8mm
8cm
850
817
820
821
858
804
853
801
852
855
806
854
94
920
945
942
921
958
959
923
924
938
937
952
955
927
940
925
ati
aor
aro
ant
aip
aver
avi
ages
ame
athough
avid
ajustment
bn
bu
bc
bac
bil
bic
bad
ban
bout
bial
bome
bag
bound
blast
buck
binder
bounded
bipolar
bails
c2
cd
c3
cas
cne
clac
ccu
cpr
cos
cast
cup
centesis
cinder
cured
dn
ds
dh
d4
dz
d5
dance
dur
doph
dosed
dedic
drop
dress
dcoiled
dura
ef
ej
edi
ene
emin
ean
elu
eso
ecom
egg
efusion
eof
ehart
ft
fen
fro
fora
fit
fow
fss
flap
fading
ffusion
fused
fortunately
gb
gar
gig
gain
gone
gown
genesis
hc
hou
hum
hence
hop
host
hron
hover
hart
homog
hinder
ii
ib
iac
iare
ibp
ictal
je
jo
jj
jew
jump
job
ks
kind
lf
l5
len
lul
lub
lary
lved
land
lasi
lends
laryngeal
mar
mer
mdi
mro
megaly
mach
mad
mess
mall
mur
miss
mental
mothorax
mediastium
mproved
na
nd
nil
nic
nat
norm
nerv
ntra
nto
nails
o2
ot
om
ok
oasis
omin
oss
ocurred
onto
othr
pp
pg
pm
pne
pub
pol
pine
pir
pso
parent
plic
ported
plasty
plas
play
plant
parge
qa
rj
rhe
rre
rent
ration
rati
rocal
rising
rright
ridging
rpo
sm
ss
sz
son
sph
scl
sain
stic
sym
soci
sond
send
sene
stead
syst
sorting
sni
td
tv
tf
t3
ton
tsi
tom
tight
tit
tough
tong
tira
tand
tlung
tented
uro
uter
unt
unob
ube
uwith
utility
uchanged
vn
veg
vad
vla
valu
vacu
vage
vide
ws
weg
why
wan
wron
wise
wav
writ
x2
x4
zi
zos
##28
##2am
##eu
##een
##etion
##elect
##ell
##erem
##ela
##eisting
##etation
##eep
##etence
##ezing
##etency
##ps
##pora
##pedi
##pous
##pet
##poc
##put
##patient
##pragm
##pli
##pos
##pty
##plated
##pension
##plate
##pectomy
##pneumothorax
##poses
##phen
##pheresis
##piate
##tn
##td
##tre
##tum
##tral
##tural
##toc
##tsis
##tours
##tates
##tard
##tomy
##tty
##toma
##ttes
##tarding
##tars
##ab
##aj
##aed
##aer
##ane
##athe
##aver
##aphragm
##aus
##atal
##ama
##aedic
##aela
##lar
##lom
##lora
##lct
##lip
##lior
##lud
##lir
##lating
##lled
##litting
##o2
##oi
##oy
##ov
##opac
##ostr
##ohilar
##oast
##ooperative
##oesophageal
##oiding
##opacity
##oel
##oxic
##ovas
##olectomy
##orement
##oomegaly
##odic
##oiliac
##na
##nar
##nes
##ntion
##nly
##nter
##nity
##nhy
##ntive
##none
##neding
##nuated
##nament
##naged
##nymal
##nace
##nproved
##gges
##grou
##gatic
##gleno
##giver
##gastrostomy
##gaus
##glom
##uent
##upp
##ucl
##uge
##uper
##ugh
##uch
##utive
##uinal
##uques
##usthe
##rt
##ror
##rac
##rural
##rties
##rastric
##ried
##ritation
##ridi
##rued
##rpation
##rheal
##rpo
##iac
##ision
##imal
##iro
##iasis
##iform
##ilet
##iventricular
##itable
##iolateral
##idis
##isions
##ycl
##yection
##yling
##ycal
##ywhere
##df
##dtion
##dum
##dation
##dated
##demonstr
##dden
##duction
##ddow
##duced
##dged
##doomegaly
##dridi
##ml
##mid
##mural
##mur
##mass
##mater
##mend
##mome
##mosis
##matory
##musc
##mophy
##mias
##momary
##cs
##che
##cac
##cum
##cter
##cated
##corac
##crow
##case
##ctable
##coid
##cover
##cking
##ches
##cription
##cnhy
##sa
##she
##sent
##sve
##snt
##scre
##sur
##sulated
##slucency
##sued
##swered
##supp
##va
##var
##vor
##vent
##vular
##vbly
##vanced
##voel
##har
##has
##hic
##hous
##hge
##however
##homogeneous
##hnged
##bia
##bilateral
##bec
##but
##bulation
##bile
##bale
##bidi
##bidity
##bel
##basal
##borated
##bibasilar
##xus
##xations
##xemia
##xeisting
##fed
##fly
##fir
##fuse
##figuration
##fusc
##fills
##3nt
##ked
##kink
##khart
##kscre
##ze
##zen
##zoar
##05
##wo
##whel
##5pm
##8pm
##9ident
##jec
##6p
##qe
##herent
##heart
the2
theet
thecar
thejunction
therap
##onal
##ontracheal
##onitis
##oncave
##ontours
##onucl
##alf
##alim
##alasia
##reated
##rese
##rented
##arin
##aris
##arter
##aria
##arison
##arized
##arupper
##arming
##articulation
##arrheal
##teal
##terem
##tective
##tepora
##te3nt
##tio
##tiing
##tise
##tian
##tiple
##tiray
##tipation
##tirpation
##astic
##asized
##asternal
##astinal
##assic
##ngent
##ngsta
##ngospasm
##lero
##lest
##lenic
##leman
##lerating
isis
isst
isnt
isno
isnot
isrotated
isunchanged
ismid
##edis
##edema
##orx
##orsion
##orra
##orial
##orrect
##orses
##oroughly
##orthorax
##orption
##orces
##ortening
##orbidi
##enlarg
##eners
##ences
inac
invi
insis
incl
insta
intention
incap
inwards
inutes
inherent
##era
##ering
##ertained
##eries
##ertheless
##erading
##sio
##sill
##sibly
##siven
##sitivity
##sivis
##sisient
##sitating
##size
##inary
##inement
##inarily
##inodular
##incter
##acic
##acro
##accomp
##acrom
##tharg
##thorac
##thick
##thcatheter
##thood
##thugh
##thiasis
of7
##ndul
noon
notion
noat
nothing
noprevious
##igur
##esta
##estr
##esous
##essing
##esmophy
##essitating
##ild
##ilary
##ilib
##illo
##ilitated
##oug
##oured
##oubles
##umat
##umath
##omg
##oming
##ommon
##omach
##omediastinum
##omoy
##diac
##dient
##diograph
##dicu
##dicial
##atever
##ateness
##atectomy
ands
andin
##icty
##icker
##icap
##icella
##icolectomy
##icycl
##ulmon
##ulare
##ulting
##ulative
##ulater
##ulthood
right2
rightsided
##eframe
##emit
##emheart
##emomediastinum
areolar
areind
##lysis
##lytic
##isen
##isted
##ispy
##ishing
##isplaced
##iscoid
##hanic
##hative
##having
theres
##nea
##new
##neos
leftand
leftpleural
leftsided
##neumoth
pneumia
pneumthorax
pneumorthorax
##nchanged
##ncement
##ncency
##ncutaneous
coned
const
conge
concent
concur
conds
contrac
contem
concav
congr
concer
conglom
contepora
##idor
##idated
##idrain
##idaphragm
effuison
effuisions
effucs
effusio
effusionand
effusionaccomp
pleral
plexus
##urals
##urally
##ubg
##uble
witin
wity
wiith
lucen
lugn
lupus
lunar
luncency
lungmo
lunglucency
lungdiagno
##taina
##tably
##taion
##tability
##taneos
withing
withour
withbibasilar
withoug
##roke
##roach
##rothorax
##rocal
##roiliac
##roidis
##roduced
lodged
##hanging
tool
toilet
toxemia
tolerating
carini
cardom
cardoomegaly
##term
##tering
##tersti
##terfly
pneumothoar
##stood
##ola
##olding
##olving
##olution
##olord
##oldering
pneumothoraxright
##cts
##ctum
##ctness
##ings
cardiop
cardiothoracic
tubulation
##vein
bear
bean
beside
belong
beats
beaver
bezoar
behaving
##emay
tubeare
tubepro
pulsation
pulomary
pulmomary
##earte
pulmonaryhy
##rained
##raft
##ranged
rely
reble
revious
reim
reper
relying
reinf
recur
recency
reinflated
rebre
revisual
rectal
retarding
reolving
rectum
##tining
unchange
uncooperative
uncnaged
unchnged
uncommon
unchanging
##itc
##trical
##trates
##trast
opacit
##ntomoy
sees
seques
seize
segement
sengsta
lowered
lowlung
##ediastian
ornament
##physema
##phoid
##pharyngeal
##phgragm
##phgaus
##phasized
previ
preop
precar
prehilar
preint
prepon
presisting
prevalent
prevertebral
prebronch
preformed
pretty
prexeisting
aso
assis
ascu
aspri
asyme
asmall
asked
atelectasisan
atelectasishowever
poore
mores
mobility
moving
motor
moves
mobile
exec
exlu
exterior
extern
exited
exogenous
exhibit
exlud
extirpation
applic
applies
##iagno
##iatd
##iadtion
##iaml
##houete
##houute
comma
commented
comfir
comorbidi
edges
edama
edemaand
edemawh
edemahas
cardiomediastium
cardiomedis
cardiomediastian
##ogement
##ogical
##ogastrostomy
##ogonal
##ularly
##ularis
atortu
attes
atrophic
comply
compound
computer
compelling
composite
compete
compounded
stat
stab
staus
stays
stations
staphy
stapedi
##derate
##derance
normality
baso
basic
basess
basically
basiliar
basilary
basemay
##cet
cable
cathe
cather
cance
milk
miltifocal
##thesis
##thered
mildy
mildpulmonary
stop
stone
stack
stones
stroke
sizeapp
##very
##versing
##ette
##etly
##etrating
sue
supper
susta
sutural
suitable
sudden
suncutaneous
opacific
opacitic
opacites
opacitis
opacirties
interse
interrog
intercurrent
interstic
interfer
intervertebral
silouet
silouhe
silouette
silhoute
silhous
silhouute
##credited
##creaed
silhouetteis
deal
debhoff
decending
devoid
delir
decreaed
consent
consec
conserv
consulate
constipation
consulting
smallest
checking
chesty
##atial
##atite
lowering
moderat
moderated
moderateleft
lift
liek
lives
voluminous
prox
proomin
prolong
prospec
proemin
proves
prohibit
protoc
proyection
protective
prominant
promp
prpoc
priro
prsent
radiogram
radionucl
cardiacl
thresh
thusthe
tharupper
thoroughly
thicker
positionoing
##ioroscopically
##sequ
##ascial
##ressing
##resses
##restimated
##resolved
radiographin
radiographper
radiographdemonstr
consolidating
consolidatation
bilateraly
consolidationpleural
consolidationedema
##udge
##viular
##vius
##viron
##vitating
##vivor
abpa
abduction
onward
overpenetr
overlied
overyling
overcrow
overwhel
immin
imma
imnproved
imrpo
immater
##ocation
##ocated
##ocative
##oclavicular
##occus
##ociatd
pneumona
vascual
evocative
appearant
appearane
appearnace
endd
endop
endplate
endontracheal
endorses
lungsk
lungstable
albe
alive
alvoel
alarming
alinement
althugh
increasied
upperlung
uppercase
##ibits
envelop
enod
entailed
enlar
ensitivity
enphysema
environ
##ficant
##ficited
comparedprevious
##ectious
perina
percei
perime
perched
perpet
perohilar
persisient
perinodular
pericap
opacitiesleft
lobeectomy
cardiomegalyunchanged
prior2
priority
subsc
subsiding
subclavicular
substernal
subdiaph
subcap
substrate
submusc
subcorac
subacrom
##valvular
evidences
contradi
catheterapp
jug
juices
juntion
##lace
##mina
##minated
##opd
##oping
##oplic
##opardi
##opleural
##oposterior
##ortment
##achiocephalic
##achymal
##irast
imposed
imperative
implic
impeding
impair
impending
impeded
impede
impaired
implied
impressive
implies
midst
midcla
midsternal
midnight
midche
button
butterfly
##largement
anten
anap
antero
apl
aparent
aprop
aplastic
aposterior
apycal
##adoxic
likely2
placment
##cling
##clock
##ains
forth
forces
cms
letharg
thisside
##thering
##vcal
svcbr
basez
basebut
stomachwith
##imen
##inatus
##inatn
##inanly
##ssus
##ssoming
vie
visibly
havent
agressive
territ
dish
dishis
sling
sludge
infla
infetion
slightlty
congestiona
##turing
##trocardiac
##troyed
notwith
notbale
##carbia
##arkably
opacificationa
opacificationis
pick
die
difere
difuse
diarrheal
##antic
##anied
##vicle
endotr
##luses
##lucencies
##geon
##gered
##gectomy
largel
endotracheally
whch
whatever
whispy
present2
##ibasal
bibasil
venocaval
retrohilar
retroca
retropharynx
retropharyngeal
approval
approached
appropiate
retrocardiacly
clue
class
classic
##pericardi
##pericardial
##pertension
hemidia
weak
##trix
adden
adverse
admitted
adete
adaj
adulthood
reposi
reporting
repaired
represe
reproduced
##nosupp
nascet
piccs
picco2
##liqu
##lithiasis
obfusc
objec
obtaina
obvius
projets
##allary
##stictness
reflex
refelect
reflct
##ostasis
##ostosis
##ostomies
earring
##roncial
venouscatheter
sugery
suggges
##tifact
morel
worried
unav
unheal
unkink
unnchanged
unresolved
unibasal
bypas
##character
##chovas
##chnymal
airation
airflow
airdistended
##atsis
##atment
##atneous
##atology
##atogenous
remember
remitting
trv
trying
trunc
tripolar
troubles
##remphasized
earlierpatient
supplying
supplement
suppura
##stant
abnomal
remainsand
thanon
signifies
signficant
removing
remova
standards
standardly
substance
substanti
substantive
postero
postext
posteromedial
pars
parathy
parrahilar
particip
parasternal
parachymal
paradoxic
unremarkably
superolateral
superclavicular
supervision
deflec
defines
defining
aspira
asplenic
##urd
placethe
severeity
##cion
##cities
##ciularly
##sively
regimen
##erexp
assure
associatd
assortment
action
activity
acending
acheal
acdf
acontours
accredited
someone
someob
diaphgragm
diathesis
probability
infected
resting
resurg
reserved
res9ident
possibel
postural
posttre
fluidopneumothorax
comparision
identifying
chst
chondral
prominet
prominance
aspiration2
comparison2
atriob
clincal
representatelectasis
pacu
apicalpneumothorax
canula
calfications
calficited
calluses
continuum
continuity
improvment
trachestomy
tracheob
tracheotomy
sterni
sternectomy
sterntomoy
##ronchoplasty
expectable
expense
explora
enlargements
string
stridor
##iantes
##laviular
sings
washout
washing
persistents
persistentlucencies
basalir
significsnt
calcifed
approprietly
lateralized
lateralization
lateralizing
##uctory
##come
##coming
thoracostomies
arcing
armo
articulation
arisen
arranged
atriums
approximates
approximatively
approximately5
constantly
esolution
simulated
##osteal
multifact
similarlikely
fracturing
engage
engorement
engogement
colic
colitis
market
dayl
##mental
althought
survivor
surgeon
bordering
##nician
obsuc
obsured
patches
find
finer
finds
finishing
ijl
aorticpulmonary
peridiaphragmatic
periventricular
periodic
periosteal
diffused
loculating
examine
examwith
medio
mediated
medius
mediobasal
vehic
advise
ctwo
sternotomies
findingsa
findingsnew
follic
overtly
outward
outsize
outcome
extention
currented
dendridi
severities
assesses
##loarticulation
cord
corner
corpectomy
corkscre
undisplaced
undrained
undiagno
underexp
greather
dot
embed
empty
underline
underside
underway
underlined
undersur
understood
##tribute
chronology
combo
resolves
collapose
atelecasis
atelecatsis
atelectatics
##spin
##sparency
verify
indistictness
essed
essence
infiltates
##exin
chronicicty
feedubg
feedings
gives
pacemaking
aeratation
##hns
technology
infiltrated
infiltrations
##ondrom
nodulations
residula
fracturesab
evaluted
progresses
process2
proximalmost
##hoe
residually
betters
fidicu
##cences
surgeries
techniqe
co2
coast
coving
coded
desne
deserv
deserve
destroyed
redo
reduce
##biliary
multilobular
soie
quarter
##bhof
potentialy
##ackets
tranthcatheter
##ringothoracic
underlyingmass
correpos
reflectiing
accompany
accompaniment
wheezing
configur
compress
compressing
distending
courseing
imagine
esophago
esophagopleural
##oresis
multiplebilateral
backed
backgrou
crowds
transvascular
transform
transoral
transcribed
transfer
transmitted
transformed
translating
transcription
transversing
hyperventi
hyperaer
hyperalim
hypercarbia
hyperostosis
sweep
multifocality
multifocalopac
swans
swanz
semiopaque
##anzing
amput
ambulation
dobbhof
inclusive
sclero
##infectious
partum
partciularly
developments
developmental
sail
save
samp
samall
saphen
##ception
filma
complicates
hemorra
hemicolectomy
hemidaphragm
detectedafter
##mapheresis
##formations
scarrings
scarringand
##esophagectomy
##ardial
sections
allocated
recommnded
recommmend
recommendcon
indistinctly
indistinctnes
indications
thickenings
##ules
nears
necessitating
intrabronchial
intramural
intrathorac
intrapericardial
redistribute
confluenting
##icardiac
dispens
nonca
nonag
nonob
noncav
noncon
noncalci
nonhem
nondiagno
nonhomogeneous
nonenlarg
noncharacter
noninfectious
##face
inspect
inspected
inspirast
locationd
locationz
redistributionand
mainten
clavicula
fudicial
accident
notes
fulfills
dilate
dilates
dilute
dilocation
longue
longterm
validity
validated
drs
drive
##tensive
##tentional
necklace
##gged
assessments
gastrotomy
gastroesophagectomy
gej
##ailability
brought
brace
brackets
indents
indcated
traces
tracing
helps
helped
inferred
inferiolateral
hernial
inferiormost
presumedo
minidrain
miniaml
invaria
helpfull
hardly
##scence
medialization
distensibility
twin
twisted
involuted
involute
generous
generating
timeline
insular
instersti
##orrhagic
hemorrhages
absorption
absurd
splay
spasm
spoke
splitting
spastic
spillo
spatial
pronouced
orograstric
degenerate
predominanly
##leton
muuch
muild
subtler
chages
chaacter
chance
correlations
distributions
uptur
upto
updated
upcoming
pages
pause
paging
panel
paired
peripyloric
depot
depressing
neertheless
##stered
apicobasal
apicolord
apicoposterior
opn
option
opcac
optiray
opcities
bowels
hypoch
hyperem
##ological
trabec
fundoplic
causal
shear
goodpas
originated
azygoesophageal
biv
bivalvular
fibroid
fibril
mitrac
avm
avms
avoiding
availability
fieldsare
discuses
ballpoint
illl
illness
##tainl
whereby
mallet
malplaced
malacic
malformations
yestard
zonesas
route
max
maker
mailed
matrix
deforming
whetherthe
defibrillating
specified
speculative
decompresses
hazes
##edicular
peribroncial
holemark
ocver
attentively
specifics
specificright
101
10l
10mm
1056
1032
1046
1035
1059
1014
1019
1024
1057
1026
1052
1055
1027
1048
1013
1039
introduce
introductory
mediallyand
##cidate
calibers
tevar
tethering
sihouette
suprasp
supraclavicularly
##acterium
##tracer
convinced
convincingly
luminal
beneathe
rathern
respiration
incompetency
incomparison
characterizing
hydroure
patterns
raynone
focussing
lingul
lingual
lingua
lingers
coronaries
hrct
lymphocy
lymphomatous
##andering
betweeen
##ordinarily
##eterminate
indeterminant
dictate
plaural
plauques
##agal
##roidectomy
deviate
deviates
exceptionally
discount
bullas
bullus
septum
vertebrectomy
##positioning
thyroidis
embolized
embolize
obstruct
requirement
grandul
gradient
conspicious
uncleared
serum
serosi
serosal
recess
receding
receded
recovered
fewer
skull
vagus
cephalid
cephalexin
termiantes
predominent
predomince
predominated
predominates
diminish
colonoscopy
morbidity
mortise
##just
bioptic
malpositionned
fatty
banding
operated
tracts
hematothorax
hematomas
curvy
became
##seshoe
annual
duodenal
blending
boop
bored
persisten
persiste3nt
forwards
pathcy
secures
flexures
aneurysms
alternately
shaddow
##apularis
##apatite
confirmatory
discreet
responding
responsve
coarser
recognizing
heaves
discretely
ircular
irritation
directing
readvanced
readjust
regardomg
faintback
diuretic
blurs
varice
varicella
##ptly
delineates
firm
transpedicular
hydropneumo
supralateral
##surgery
juxtaphrenic
chains
pleuradesis
pedicles
hydroxy
gaseously
subpulmonary
hypovolemia
hypotensive
151
154
159
1515
1519
1544
##airs
##berg
fiduciary
123
12cm
1217
1256
1233
1234
1235
1258
1204
1251
1259
1236
1209
1211
1241
1206
128pm
##ypnea
caregiver
coalesce
coalesces
epicardiac
totality
impressionlung
limitted
dextropositioning
##gned
nasoesophageal
nasojejunal
choice
osteal
osteot
osteosclerosis
symptomatology
plueral
unused
flatting
meandering
acromioclaviular
millimeter
infiltrating
torn
torus
evolve
evolved
##lococcus
stimulated
stimulater
distorsion
extravascular
extraesophageal
extraordinarily
cavitaion
informing
informative
tempted
template
bloody
blossoming
dextroscoliotic
splenectomy
repairs
key
physes
pullthr
paste
passively
detectably
physiologically
affection
affairs
secretion
secretory
##lobulated
community
communicating
##asonography
hands
attributes
cannulated
1130
1103
1156
1133
1135
1158
1153
1144
1126
1138
1109
1111
1112
1113
1139
1128
morphologically
morphological
discontinuous
##otumor
epicardialvein
halo
243
249
productive
sparse
sparsity
pepper
peep
usb
user
winding
##cinosis
windowis
misalign
passage
ruq
carried
requesting
tunnel
compressions
bedsides
bedrid
howver
sooner
apicolaterally
calcificed
calcificato
electroph
magnifies
excised
desirable
weekend
discordant
bubbles
safety
distinctness
##obbhoff
suffered
hypopharyngeal
fragmentation
orientational
##sertion
##eralizing
referable
mistakenly
stemi
positon
positio
nipples
ega
abscessing
bending
demineralizing
avoided
positively
determines
determinate
capture
captures
eventually
braf
braid
homogeneously
rendering
overlaid
kyphoplas
aortoiliac
crohns
interpretability
demontrates
##vealing
triagular
housesta
lipomatous
pneumohyd
reveale
behalf
dimensional
brochovas
femara
femorally
hugging
seemed
cva
jejunal
skeleton
ventriculoatrial
steroid
steps
striated
stripping
slower
pelural
pellets
skeletally
hospitals
exacerbating
counting
counter
##jects
reality
realistic
interfacing
radiotherapy
radioopacity
radiotracer
respects
ipf
##oplasmosis
tracheoesophageal
brachytherapy
virtual
strikingly
hero
packaging
202
205
207
2050
2032
2035
2058
2008
facial
facilitated
horseshoe
ileum
ringed
exceed
whitening
depict
depicting
thinner
armoured
intrafissurall
peribroncho
tense
ultifocal
ulcer
ulna
ultiple
##gedly
orders
ordering
fevers
hepato
heparin
133
1330
1350
1345
1346
1358
1319
1318
1348
136p
cells
cellular
variably
variability
clarity
possibilty
straddle
destructions
pseudo
pseudoar
pseudloarticulation
pseudotumor
displace
pleuropericardi
contiguously
subjected
transiently
uniformity
guiding
overlaping
overlays
enhances
enhancement
simultaneous
pleuropulmonary
140
148
14cm
1445
1458
1414
1441
1413
142am
cystgastrostomy
cystogastrostomy
latent
medically
nondobbhoff
taa
tangent
intracell
organzing
succion
impingement
assesed
characteristically
syrup
syuper
syringothoracic
orthogonal
alters
alteration
alterated
alterhative
viscera
directions
circumscrip
bifurcationit
180
1803
1834
1853
1819
1836
mechanic
summed
interventions
intermediate
ultrasonography
fluctuate
fluctuates
orthopaedic
1657
1626
1654
1605
equina
equilib
tends
##ompetence
mechanism
connect
connector
connective
problematic
administer
syndesmophy
idea
lysis
purposes
pursued
ruptures
reversible
834
836
842
843
840
845
fissue
nineth
sequential
sequaela
excreting
excrescence
evenings
occlusions
cannulas
reaccumulate
notifications
1742
1735
1714
1731
1709
1722
1710
303
307
crit
crus
crack
crrt
crurals
muscular
nursing
nurses
delivery
advanceed
blebectomy
osteophytic
guided
dysfunctional
foresh
fovcal
##elry
insinuated
ascertained
subluxations
implantation
forming
heterogeneities
creating
credited
demostr
plulmonary
plrural
riser
compromises
leukostasis
paracardial
worsenend
worsensing
fluoro
adjust
numberous
214
219
216
encroach
flashing
solidly
smoker
trachial
resuspension
quantities
quantification
quantitate
pullbacked
unexpectedly
257
919
mediastinam
mediastinitis
timeframe
thermome
relax
relaxed
interspaces
immunosupp
examining
##ondriac
hyperdensities
grafted
stenotic
demarcates
entrapped
905
907
ductal
hereafter
puts
putting
sacular
saccule
sacrum
sacroiliac
urge
urinary
years
yearly
prevail
prefers
preferable
preferred
checks
ossified
1222
1223
1228
1227
designation
designations
damaged
laparoscopy
0717
0756
0745
0753
0731
0757
0726
0722
cycling
inguinal
ingraft
mrsa
mva
instructed
complexity
stopped
overlyies
peritonitis
intralobular
assymetrical
flushing
fixating
degradation
spurs
bottle
myelomatous
microatelectasis
523
528
527
529
bursal
flagged
lacerations
pna
pnemomediastinum
pancoast
rows
tilting
umchanged
inhibits
##ramgatic
reintubation
pregnant
applied
interrupting
interruptions
likly
infrapulmonary
infragleno
unrecover
unrevealing
##diaphramgatic
particurally
costodiaphramgatic
spots
neurol
specialized
specialist
occurs
effacing
distinctions
urgently
establishing
0821
0846
0834
0837
0852
0848
822
823
824
828
achalasia
bbibasilar
donation
solve
soluble
tachypnea
intensive
intensity
intentional
intensivis
consisent
completed
opacify
decidual
profuse
profound
##sepsis
influent
##stitution
outpouching
hemoperitoneum
highlighted
dextroconcave
extravasated
extravasating
opportunity
immunocompetence
pancreatectomy
eosinophilia
812
813
818
balanced
maty
matted
matches
square
squaris
sillhouette
sillhoute
sillhouete
disruptions
disappearance
superficially
resemble
indirectly
emphasize
sponge
thrombi
thrombus
thrombosed
1030a
lymphohem
myocardium
attests
1959
239
erosions
judge
judged
judgment
palpation
##niv
issue
issued
##ropriateness
selectively
consequently
thymic
thymus
thymectomy
vasculr
vasculitic
diverging
address
unintentional
postinsertion
advisability
descneding
swallowed
spondylosis
pageable
manipulated
manipulations
reconfiguration
reconstitution
variety
hydropneumothorx
metaphysis
instrument
instruments
1303
1300
1308
1306
412
740
748
749
dropped
drooping
eliminate
lab
laid
labr
labora
laminated
plana
planning
rmains
rigth
rlll
incorrect
unchagned
preprocedural
polylobulated
modearte
modification
modicum
modalities
retrospective
clotting
remodeled
multicystic
transitional
gastrojejunal
1000am
100000
functionality
straighter
tendons
tendonitis
connections
decidedly
inappropriately
diverticula
perpendicularly
trendelenberg
0430
0450
0445
0434
405pm
aids
detachment
errant
error
flanks
gets
penumath
penetrating
panlobular
ruling
tablets
inconsequ
inconstant
reinsertion
extraction
extracardiac
caudad
proceeding
radiologically
ensued
ensuing
subcutaneos
subcuatneous
disclosed
slighly
slighlt
unshar
chondrosis
chondrocal
shortening
sternocostal
coexistence
hemiatoma
nonemergency
mammary
discrimination
centering
subjectively
inhaled
highlights
pnuemina
diverticulitis
unresponsiven
230pm
bows
coracoclavicular
eveident
everywhere
fnh
fxs
fascia
fascial
fascitis
maild
ostium
pillar
senile
vacation
vacated
##pretable
##angement
converted
converge
conversation
##rosthesis
pulmonologist
regularly
attachment
company
allegedly
imperceptible
leaving
diastasis
tributary
argue
argues
arguing
arches
atelectais
atelectatis
atelectatsis
solely
scaphoid
nonvisualized
geometry
independently
spiking
speaking
pagets
hypodense
hypodensity
hypodensities
travels
traveling
fibrous
malaligned
107pm
1020am
disconnection
1143
1147
pseudomona
dangerous
ascribing
neurosurgery
mycobacterium
constriction
uninterpretable
answering
discriminate
inhalational
laminectomy
retracts
aspergillus
anastomotic
paragraphs
0133
0135
0330
0321
0050
0056
0500
0546
0959
0918
0153
0159
0032
0037
0510
0516
2210
2216
328
605
815am
adipose
adipous
axial
axiallary
alert
alerted
clues
clustered
dermal
derangement
digit
digital
dominated
dominating
flare
flioroscopically
gauge
gathered
gently
gentleman
mentions
meniscoid
moment
overestimated
overemphasized
parecnhy
parechnymal
peck
piece
sgc
salt
saline
tentatively
tibia
uppen
uppper
vasogenic
vasov
wane
waxed
wrist
wrists
##gragmatic
##marks
##borating
intraspinal
intrudes
intussus
intuniv
noticed
notices
wihtout
reaeration
readiograph
rewarding
rewiring
reenters
reentering
reappeared
reappearance
atelectasias
preferentially
exempli
edea
edeam
candidate
candidates
starts
declare
declining
consolation
consoliadtion
prominatn
promptly
prioor
pertains
pertaining
midlines
midlinewire
disorders
distraction
distracted
otherwisedense
clothes
clothespin
additonal
obligate
obligatory
unanticipated
unanswered
trigger
triggered
cholelithiasis
choroidal
drape
draped
drawings
artfact
artosclerosis
surprise
surprised
perifocal
perifascial
densemit
corroborated
corroborating
understandably
verbal
verbally
technician
redeveloped
redevelopment
hypervascularity
hypertranslucency
hypertransparency
shielded
histology
histoplasmosis
masqued
masquerading
defibrillation
defibrilator
bioprosthesis
bioprosthetic
1216
1207
osteoacro
osteolytic
osteochondroma
osteochondrom
localizer
localizes
1100am
pseudocyst
pseudocavitary
micronodulation
micronodules
guesses
nephroureteric
nephroureteral
summary
summarized
meaningful
1005am
fixators
thrombocytopenic
thrombocytopenia
strictly
reconsidering
crescentic
crescenteric
scaffold
scaffolding
fortuitously
photons
contraindicate
contraindicated
anesthesia
anesthesiologist
arrhythmia
arrhythmias
0245
0201
0428
0216
0328
0441
0016
1minimal
2minutes
250pm
2156
4hr
502
947
942am
atirum
aoritc
arota
antral
average
avium
amelior
bnp
buys
bcopd
bacterem
bilobar
biconcave
badly
bankhart
bialteral
boundaries
bucky
bailsar
cd4
casings
cnetral
clacified
cosolidation
cupola
dnlargement
dophoff
dedicate
ediastinal
eneteric
eminence
elucidate
esophgaus
eggshe
fenestr
frozen
foramina
foward
fssural
ffusions
garment
gigantic
hcc
housing
humoral
hopes
hronic
hovering
homogenous
hinders
iacs
jeopardi
joined
jewelry
lfet
lenticular
lube
laryngospasm
landmarks
lasix
marble
merit
mroe
machine
message
murmur
name
nicu
natural
nervous
ntraperitoneal
ntoed
omolateral
okay
ominous
ossesous
othrwise
ppneumoth
pneu
pubic
policycl
piriform
psot
parents
plica
plasmapheresis
plays
plantar
rheumat
rretrocardiac
rationale
ratios
smoldering
szie
sonogram
sphincter
saint
sticker
symphysis
social
sonde
steadily
systole
sniff
tdt
tonsill
tsicu
tomography
tightly
title
tongue
tirangular
tandemheart
urosepsis
uterus
untreated
unobstructed
uwithin
vegetation
vlave
values
vacuum
video
wegeners
waned
wrong
wavy
written
zipper
zoster
##eutic
##oius
thecarina
therapeutic
isstomach
inactive
invisible
insisted
inclined
instability
intentionally
incapsulated
##thickening
noatvbly
##ulmonar
areindeterminate
constphrenic
congesion
concentrated
condsolidation
contracted
contemplated
concavity
congruent
concering
conglomerate
conteporaneous
effucstion
effusionaccompanied
luceny
lungmoderate
lungdiagnosed
carinii
cardomediastinal
pneumothoarx
cardiopulmonar
belongs
tubeprojects
pulmonaryhypertension
rebleeding
reviously
reimaging
reperfusion
reinforces
recurring
rebreather
revisualization
sequestration
segements
sengstaken
ornaments
previoius
precarious
preintubation
preponderance
prebronchoscopy
assistant
ascue
aspriation
asymetric
poorer
moreso
executed
exluced
externa
exlude
applicable
comfirmed
comorbidities
edemawhich
cardiomedistainl
cardiomediastianl
atortuous
attesting
computerized
staphylococcus
stapedial
cathetars
catherter
cancelled
stacked
sizeappropriateness
supperimposed
sustained
opacifiction
opacitication
intersection
interrogation
intersticial
interfering
silouetter
silouhettes
silhoutette
silhousette
delirium
consecutive
conservative
moderatly
liekly
proominent
prolonged
prospectively
proeminence
protocol
prompting
prpoces
radionuclide
threshold
radiographperformed
radiographdemonstrates
overpenetrated
overcrowding
overwhelming
imminent
immature
imrpovement
immaterial
vascualture
appearanec
endoprosthesis
albeit
alvoelar
enveloping
enodtracheal
enphysematous
environmental
perinatal
perceived
perimeter
perpetually
pericapsular
subscapularis
subdiaphgragmatic
subcapsular
submuscular
subcoracoid
subacromial
contradicts
catheterappear
implications
midclavicle
midchest
antenatal
anaplastic
apropiate
apycalthickening
##clockwise
lethargy
svcbrachiocephalic
territory
dishiscences
inflamatory
notwithstanding
diference
retrocadiac
hemidiapragm
weakness
addendum
adversely
admittedly
adetectable
adajcent
repositining
represeting
##liquity
obfuscation
objectively
obtainable
venouscatheters
sugggest
unavailable
unhealed
unkinked
bypassing
truncus
troublesome
supplemental
suppurative
abnomality
substantiating
posterobasal
postextubation
parathyroidectomy
participating
deflecting
aspirating
someobliquity
resurgence
posttreatment
atriobiventricular
tracheobronchoplasty
exploratory
washouts
washings
armored
multifactorial
obsucrued
vehicle
follicles
currentedema
dendridiform
corkscrew
undiagnosed
underexposed
embedded
undersurface
fracturesabout
fidicual
deserves
correposnding
configurations
backgroun
transformation
hyperventilation
hyperaerated
hyperalimentation
multifocalopacification
amputated
sclerotherapy
sampling
saphenous
hemorrahge
recommmended
recommendconventional
intrathoracically
dispenses
noncavitating
nonaggressive
nonobstructed
noncavitary
noncontrast
noncalcified
nonhemorrhagic
nondiagnostic
nonenlarged
noncharacteristic
inspirastory
maintenance
invariably
insterstitial
splayed
spasticity
spillover
upturns
apicolordotic
opcacities
hypochondriac
hyperemic
trabecular
fundoplication
goodpasture
fibrillation
mitraclip
discusesd
yestarday
holemarker
supraspinatus
hydroureter
lymphocytic
thyroidism
grandulomas
serositis
faintbackground
variceal
supralaterally
hydroxyapatite
osteotomies
pullthrough
1126pm
misalignment
bedridden
calcificatoin
electrophoresis
kyphoplasties
housestaff
pneumohydrothorax
brochovasular
counterclockwise
hepatobiliary
heparinization
pseudoarticulation
pleuropericarditis
intracellulare
syuperimposed
circumscript
mechanics
equilibrating
syndesmophytes
sequaelae
foreshortening
demostrates
encroaching
thermometer
immunosuppressed
assymetricall
infraglenoid
unrecoverable
neurological
intensivist
squarish
lymphohematogenous
labrum
laboratory
incorrectly
penumathoraces
inconsequential
subcutaneosu
unsharp
chondrocalcinosis
unresponsiveness
parecnhymal
vasovagal
intussusception
exemplified
densemitral
osteoacrolysis
osteochondromatosis
amelioration
bacteremia
eggshell
fenestrated
jeopardizing
ppneumothorac
policyclic
rheumatoid
tonsillar
vegetations
